<unk>	0
<pad>	0
<s>	0
</s>	0
▁t	-0
▁a	-1
▁o	-2
he	-3
re	-4
in	-5
▁the	-6
en	-7
on	-8
er	-9
ti	-10
▁an	-11
▁s	-12
▁of	-13
an	-14
ent	-15
it	-16
ed	-17
▁b	-18
▁p	-19
▁or	-20
or	-21
is	-22
al	-23
es	-24
▁and	-25
tion	-26
▁in	-27
▁c	-28
at	-29
▁to	-30
ec	-31
▁A	-32
ment	-33
▁w	-34
ar	-35
▁re	-36
ing	-37
ch	-38
▁any	-39
▁e	-40
▁f	-41
▁d	-42
ro	-43
▁th	-44
▁C	-45
ce	-46
▁be	-47
li	-48
▁su	-49
▁S	-50
ation	-51
mp	-52
all	-53
le	-54
▁n	-55
ll	-56
ve	-57
▁m	-58
un	-59
ur	-60
gre	-61
▁T	-62
▁sh	-63
ement	-64
▁con	-65
▁(	-66
▁P	-67
her	-68
▁shall	-69
as	-70
ith	-71
ther	-72
greement	-73
der	-74
▁by	-75
▁with	-76
▁Co	-77
▁as	-78
▁ex	-79
▁such	-80
ut	-81
id	-82
▁pro	-83
st	-84
ab	-85
▁no	-86
▁L	-87
▁other	-88
▁Agreement	-89
ate	-90
ect	-91
▁E	-92
▁this	-93
ay	-94
▁co	-95
▁for	-96
ri	-97
▁he	-98
ly	-99
mpan	-100
mpany	-101
tive	-102
▁h	-103
▁Company	-104
▁here	-105
red	-106
▁de	-107
▁B	-108
▁un	-109
erm	-110
▁D	-111
ts	-112
ty	-113
able	-114
ding	-115
ver	-116
▁it	-117
lo	-118
qu	-119
▁I	-120
ic	-121
ff	-122
▁on	-123
▁that	-124
▁is	-125
▁ac	-126
im	-127
ties	-128
su	-129
se	-130
▁par	-131
ran	-132
res	-133
▁O	-134
ess	-135
▁not	-136
▁all	-137
ter	-138
▁prov	-139
ac	-140
ection	-141
hi	-142
il	-143
ance	-144
la	-145
oc	-146
ach	-147
te	-148
pp	-149
▁under	-150
ig	-151
▁its	-152
lic	-153
for	-154
ul	-155
ity	-156
▁Par	-157
ers	-158
ion	-159
▁R	-160
▁res	-161
ated	-162
if	-163
▁The	-164
ir	-165
ain	-166
ations	-167
▁g	-168
de	-169
▁app	-170
ol	-171
hich	-172
ments	-173
gh	-174
▁term	-175
▁Ex	-176
▁resp	-177
▁which	-178
ge	-179
▁may	-180
▁N	-181
ecu	-182
ant	-183
us	-184
ted	-185
▁en	-186
ign	-187
ary	-188
▁there	-189
▁st	-190
▁Section	-191
ist	-192
cl	-193
▁ha	-194
et	-195
ci	-196
eri	-197
▁requ	-198
mm	-199
tions	-200
▁at	-201
ase	-202
ru	-203
ub	-204
law	-205
ill	-206
HE	-207
▁each	-208
rans	-209
righ	-210
▁cons	-211
▁sub	-212
row	-213
▁ma	-214
▁have	-215
▁righ	-216
▁In	-217
▁will	-218
iv	-219
orrow	-220
▁v	-221
end	-222
loy	-223
mploy	-224
ision	-225
clu	-226
gent	-227
▁pay	-228
▁Borrow	-229
ct	-230
ow	-231
▁exp	-232
pt	-233
▁M	-234
▁cont	-235
ra	-236
ffect	-237
th	-238
▁ad	-239
▁law	-240
ies	-241
▁provision	-242
lig	-243
od	-244
of	-245
▁are	-246
▁li	-247
ocu	-248
ire	-249
per	-250
▁Lo	-251
▁provid	-252
to	-253
ord	-254
ender	-255
▁acc	-256
▁ob	-257
▁Sub	-258
med	-259
oun	-260
ason	-261
▁Borrower	-262
▁am	-263
▁respect	-264
▁Loan	-265
ise	-266
ecutive	-267
▁deli	-268
▁applic	-269
▁pur	-270
est	-271
ective	-272
▁Lender	-273
▁Agent	-274
▁F	-275
▁Executive	-276
▁reason	-277
▁party	-278
▁G	-279
form	-280
▁trans	-281
▁mat	-282
ens	-283
▁tim	-284
sid	-285
▁agreement	-286
ii	-287
sidi	-288
▁St	-289
▁Ad	-290
▁u	-291
cluding	-292
ee	-293
stan	-294
▁applicable	-295
rit	-296
▁time	-297
rom	-298
ef	-299
cept	-300
ally	-301
▁rep	-302
▁dis	-303
cip	-304
out	-305
▁No	-306
▁writ	-307
▁provided	-308
▁AN	-309
▁from	-310
min	-311
▁oblig	-312
▁noti	-313
tit	-314
▁Subsidi	-315
ard	-316
ject	-317
me	-318
di	-319
▁pri	-320
▁1	-321
▁has	-322
ock	-323
▁ta	-324
▁ass	-325
ocuments	-326
erial	-327
▁Party	-328
TI	-329
ired	-330
▁THE	-331
▁Th	-332
erson	-333
pon	-334
▁rights	-335
▁per	-336
▁without	-337
RE	-338
led	-339
▁This	-340
ute	-341
ore	-342
▁“	-343
ure	-344
eral	-345
),	-346
ON	-347
▁parties	-348
resent	-349
▁reg	-350
minist	-351
▁agre	-352
▁set	-353
los	-354
ress	-355
ors	-356
▁terms	-357
wise	-358
under	-359
▁ext	-360
▁Re	-361
▁date	-362
▁otherwise	-363
▁comp	-364
os	-365
by	-366
lated	-367
EN	-368
mit	-369
▁inc	-370
ecur	-371
standing	-372
▁if	-373
stru	-374
00	-375
vi	-376
▁U	-377
▁j	-378
redit	-379
▁employ	-380
▁subject	-381
▁W	-382
iness	-383
ren	-384
usiness	-385
urch	-386
▁2	-387
ten	-388
▁deliver	-389
par	-390
▁prior	-391
um	-392
▁ag	-393
▁Date	-394
iz	-395
and	-396
fter	-397
▁forth	-398
▁Comm	-399
rative	-400
▁exec	-401
ministrative	-402
▁y	-403
▁Purch	-404
▁provisions	-405
▁required	-406
cc	-407
ount	-408
▁le	-409
▁made	-410
▁than	-411
▁accord	-412
▁termin	-413
irect	-414
▁upon	-415
▁obligations	-416
▁accordance	-417
▁herein	-418
▁ar	-419
force	-420
▁effect	-421
du	-422
ably	-423
uth	-424
uld	-425
lan	-426
▁notice	-427
▁hereunder	-428
▁sa	-429
ceed	-430
IS	-431
▁so	-432
▁been	-433
ag	-434
ue	-435
▁OF	-436
uthor	-437
ail	-438
▁transac	-439
ili	-440
▁hereto	-441
▁Administrative	-442
aries	-443
▁assign	-444
ticip	-445
vent	-446
▁pre	-447
▁whe	-448
▁coun	-449
ees	-450
▁hereby	-451
ied	-452
ates	-453
ER	-454
▁Pro	-455
▁Purchas	-456
atement	-457
▁go	-458
fer	-459
▁hereof	-460
sul	-461
▁represent	-462
▁ca	-463
▁conn	-464
▁Credit	-465
alid	-466
▁Documents	-467
temp	-468
ility	-469
▁pursu	-470
perty	-471
▁connection	-472
▁inv	-473
fic	-474
rest	-475
enef	-476
▁material	-477
vern	-478
▁business	-479
ell	-480
ED	-481
▁Employ	-482
▁extent	-483
dic	-484
▁Parties	-485
terest	-486
▁pursuant	-487
ffective	-488
▁dee	-489
▁H	-490
por	-491
▁comm	-492
▁def	-493
▁OR	-494
ares	-495
▁their	-496
▁written	-497
uted	-498
▁l	-499
▁except	-500
▁limit	-501
▁contemp	-502
ermit	-503
older	-504
▁rece	-505
ces	-506
ENT	-507
▁wa	-508
dition	-509
▁right	-510
ber	-511
ities	-512
▁disc	-513
ull	-514
▁constit	-515
▁IN	-516
ive	-517
▁deemed	-518
▁out	-519
▁thereof	-520
▁cour	-521
laim	-522
ating	-523
losing	-524
now	-525
bit	-526
▁issu	-527
tw	-528
aid	-529
ven	-530
▁including	-531
eriod	-532
▁author	-533
▁reasonably	-534
▁fin	-535
▁proceed	-536
ew	-537
▁action	-538
▁Subsidiaries	-539
endment	-540
IN	-541
ke	-542
▁contemplated	-543
vered	-544
age	-545
▁conf	-546
ual	-547
▁laws	-548
sult	-549
ould	-550
tain	-551
▁Purchaser	-552
▁benef	-553
▁perform	-554
▁statement	-555
▁Plan	-556
ES	-557
OR	-558
ecurities	-559
know	-560
▁,	-561
enses	-562
▁after	-563
▁executed	-564
▁enforce	-565
▁tax	-566
dem	-567
▁ANY	-568
▁Con	-569
▁payment	-570
▁permit	-571
).	-572
ific	-573
▁full	-574
▁sign	-575
▁consent	-576
including	-577
▁day	-578
arran	-579
▁Closing	-580
▁transactions	-581
▁one	-582
▁sp	-583
▁jur	-584
▁Stock	-585
ermin	-586
gal	-587
TION	-588
▁direct	-589
▁would	-590
▁agreements	-591
▁AND	-592
▁”	-593
▁fac	-594
▁interest	-595
▁Am	-596
ever	-597
▁rel	-598
less	-599
ear	-600
▁giv	-601
▁do	-602
▁again	-603
isdic	-604
▁agrees	-605
▁counter	-606
▁against	-607
▁An	-608
▁jurisdic	-609
ence	-610
▁person	-611
formation	-612
▁delivered	-613
demn	-614
orpor	-615
pos	-616
ecess	-617
▁claim	-618
tial	-619
▁ch	-620
▁equ	-621
▁delivery	-622
.1	-623
ffili	-624
▁benefit	-625
AT	-626
oll	-627
▁Sell	-628
▁TH	-629
▁event	-630
▁Person	-631
▁pr	-632
▁necess	-633
▁ins	-634
▁3	-635
ability	-636
▁Particip	-637
▁As	-638
▁Each	-639
▁counterpar	-640
▁Subsidiary	-641
▁respective	-642
01	-643
▁jurisdiction	-644
ified	-645
go	-646
▁reasonable	-647
▁ow	-648
▁spec	-649
▁Y	-650
rib	-651
knowled	-652
cial	-653
▁result	-654
▁contain	-655
▁expenses	-656
▁constitute	-657
▁vi	-658
▁necessary	-659
▁case	-660
ort	-661
▁add	-662
▁matter	-663
▁ser	-664
▁termination	-665
ither	-666
EC	-667
ange	-668
ended	-669
IT	-670
erc	-671
▁po	-672
▁proceeding	-673
use	-674
▁r	-675
▁same	-676
▁du	-677
▁bre	-678
▁Seller	-679
rent	-680
▁period	-681
▁ne	-682
▁det	-683
▁fil	-684
▁Commit	-685
sion	-686
▁fees	-687
iver	-688
▁paid	-689
▁state	-690
▁instru	-691
▁valid	-692
AL	-693
▁fur	-694
▁Un	-695
▁address	-696
▁TO	-697
▁appro	-698
▁rec	-699
▁writing	-700
ult	-701
verse	-702
▁fore	-703
▁govern	-704
om	-705
ward	-706
ank	-707
ized	-708
ocument	-709
▁yo	-710
uring	-711
▁Trans	-712
▁Participant	-713
▁permitted	-714
ud	-715
▁wh	-716
▁affect	-717
een	-718
▁All	-719
em	-720
▁but	-721
tween	-722
▁between	-723
MENT	-724
▁warran	-725
▁constru	-726
▁ref	-727
ancial	-728
▁amount	-729
▁J	-730
ced	-731
ust	-732
ile	-733
▁stock	-734
ib	-735
mental	-736
▁employment	-737
▁des	-738
▁relating	-739
are	-740
▁De	-741
uar	-742
ected	-743
▁Li	-744
▁determin	-745
ction	-746
▁performance	-747
hed	-748
▁man	-749
ault	-750
▁4	-751
▁own	-752
▁offic	-753
▁information	-754
▁exerc	-755
tor	-756
▁legal	-757
AR	-758
tic	-759
▁Term	-760
▁breach	-761
▁shares	-762
▁statements	-763
ING	-764
▁fa	-765
▁Sh	-766
▁sal	-767
▁Amendment	-768
urance	-769
▁effective	-770
▁Any	-771
AN	-772
iden	-773
▁nor	-774
ome	-775
▁year	-776
▁regul	-777
imil	-778
▁non	-779
action	-780
the	-781
▁enti	-782
imilar	-783
ration	-784
▁remed	-785
▁Employee	-786
▁ind	-787
urred	-788
▁express	-789
cted	-790
ork	-791
tee	-792
▁execu	-793
▁similar	-794
rou	-795
HER	-796
ator	-797
ption	-798
ederal	-799
ditions	-800
▁part	-801
▁contin	-802
mis	-803
▁Property	-804
THER	-805
▁viol	-806
erti	-807
inal	-808
▁bin	-809
▁State	-810
ived	-811
▁Affili	-812
am	-813
sure	-814
▁rem	-815
incip	-816
▁i	-817
▁AG	-818
▁entit	-819
▁require	-820
▁occ	-821
tis	-822
▁cap	-823
▁rele	-824
cy	-825
ges	-826
▁only	-827
▁order	-828
▁Guar	-829
▁addition	-830
▁waiver	-831
▁ab	-832
olding	-833
▁conditions	-834
▁Mat	-835
▁5	-836
ital	-837
▁princip	-838
UR	-839
▁mod	-840
ateral	-841
▁binding	-842
▁financial	-843
▁La	-844
▁court	-845
▁inter	-846
▁payable	-847
▁securities	-848
▁cost	-849
▁conflic	-850
▁property	-851
▁execution	-852
▁imp	-853
▁insurance	-854
▁counterparts	-855
ose	-856
with	-857
ested	-858
CH	-859
▁entitled	-860
ants	-861
ited	-862
▁days	-863
▁agree	-864
ner	-865
llateral	-866
sets	-867
▁bec	-868
▁orig	-869
▁form	-870
▁remain	-871
▁201	-872
▁If	-873
▁documents	-874
▁Law	-875
▁outstanding	-876
▁given	-877
▁construed	-878
ased	-879
vice	-880
▁Material	-881
▁fail	-882
▁further	-883
oard	-884
going	-885
ounts	-886
umber	-887
▁act	-888
▁Lenders	-889
▁contained	-890
gether	-891
000	-892
▁lo	-893
tisf	-894
ollow	-895
ccess	-896
RO	-897
ising	-898
▁Loans	-899
poses	-900
▁foregoing	-901
iii	-902
▁Bank	-903
▁contr	-904
▁Except	-905
▁make	-906
▁original	-907
lect	-908
▁purposes	-909
▁together	-910
▁V	-911
▁due	-912
▁av	-913
▁into	-914
▁number	-915
ax	-916
▁limitation	-917
sim	-918
gate	-919
▁sole	-920
simile	-921
▁satisf	-922
knowledge	-923
▁Collateral	-924
ving	-925
ually	-926
▁arbit	-927
▁understanding	-928
igh	-929
▁me	-930
▁use	-931
▁federal	-932
used	-933
▁when	-934
etter	-935
▁follow	-936
▁indemn	-937
▁incurred	-938
,000	-939
▁polic	-940
▁Letter	-941
▁success	-942
▁Ar	-943
▁sur	-944
sel	-945
▁mail	-946
▁certi	-947
ves	-948
▁Bu	-949
alf	-950
ible	-951
▁good	-952
▁Sc	-953
▁New	-954
holder	-955
ecurity	-956
▁during	-957
ules	-958
▁Award	-959
half	-960
▁THIS	-961
▁facsimile	-962
urs	-963
▁gran	-964
ization	-965
other	-966
ature	-967
▁unless	-968
▁defin	-969
▁expected	-970
▁gen	-971
▁RE	-972
▁Adverse	-973
▁thereto	-974
▁exercise	-975
▁oper	-976
▁Ten	-977
▁duly	-978
▁OTHER	-979
▁inclu	-980
▁behalf	-981
CE	-982
ree	-983
irst	-984
▁transfer	-985
ne	-986
▁then	-987
.0	-988
▁Is	-989
hip	-990
ense	-991
▁PAR	-992
rough	-993
▁request	-994
▁whether	-995
▁CO	-996
▁Buy	-997
▁Rest	-998
▁Shares	-999
ong	-1000
hibit	-1001
▁instrument	-1002
▁SU	-1003
▁coven	-1004
▁Issu	-1005
▁York	-1006
▁filed	-1007
gregate	-1008
▁Effect	-1009
▁following	-1010
eren	-1011
▁tak	-1012
▁account	-1013
▁amounts	-1014
▁se	-1015
▁AGRE	-1016
▁Common	-1017
ld	-1018
▁Le	-1019
▁pow	-1020
les	-1021
▁withh	-1022
▁Board	-1023
▁Buyer	-1024
▁expressly	-1025
▁you	-1026
▁invalid	-1027
▁Transaction	-1028
▁Holder	-1029
▁cause	-1030
▁costs	-1031
ification	-1032
▁Tenant	-1033
▁assets	-1034
▁claims	-1035
ition	-1036
▁received	-1037
▁Effective	-1038
▁HE	-1039
▁issued	-1040
crib	-1041
ivid	-1042
▁arising	-1043
▁Securities	-1044
ages	-1045
ublic	-1046
idential	-1047
▁representations	-1048
▁CON	-1049
gan	-1050
▁SEC	-1051
▁failure	-1052
its	-1053
ved	-1054
▁main	-1055
▁more	-1056
cess	-1057
dule	-1058
hedule	-1059
▁either	-1060
▁capital	-1061
▁6	-1062
blig	-1063
▁specific	-1064
▁ann	-1065
orporation	-1066
▁BY	-1067
CTION	-1068
▁Cont	-1069
ify	-1070
val	-1071
▁dam	-1072
▁loc	-1073
after	-1074
▁sale	-1075
tig	-1076
▁pos	-1077
▁Act	-1078
▁mon	-1079
▁Oblig	-1080
▁elect	-1081
▁particip	-1082
▁Tax	-1083
▁taxes	-1084
old	-1085
▁int	-1086
▁exist	-1087
▁entire	-1088
▁within	-1089
▁Committee	-1090
▁his	-1091
▁HERE	-1092
▁unen	-1093
▁force	-1094
vive	-1095
▁amended	-1096
▁survive	-1097
ond	-1098
▁qu	-1099
▁Def	-1100
▁agent	-1101
▁defined	-1102
▁unenforce	-1103
ons	-1104
pri	-1105
▁therein	-1106
ings	-1107
AI	-1108
▁10	-1109
▁avail	-1110
▁aggregate	-1111
▁authorized	-1112
▁ren	-1113
▁rest	-1114
▁disclo	-1115
▁maintain	-1116
ron	-1117
▁ent	-1118
▁Document	-1119
unic	-1120
▁mean	-1121
owever	-1122
▁conflict	-1123
▁por	-1124
▁being	-1125
▁”)	-1126
▁Ass	-1127
▁dec	-1128
▁Note	-1129
ilities	-1130
▁obligation	-1131
▁consu	-1132
▁taken	-1133
▁related	-1134
ipt	-1135
▁Off	-1136
ember	-1137
▁condu	-1138
▁consumm	-1139
▁sent	-1140
so	-1141
act	-1142
▁Lien	-1143
ferred	-1144
andl	-1145
▁purch	-1146
▁equity	-1147
▁Schedule	-1148
▁communic	-1149
ctions	-1150
isc	-1151
clus	-1152
fore	-1153
pers	-1154
▁Gran	-1155
change	-1156
▁become	-1157
▁liability	-1158
ast	-1159
ately	-1160
▁issuance	-1161
▁9	-1162
LY	-1163
andlord	-1164
▁referen	-1165
ded	-1166
ici	-1167
tly	-1168
▁char	-1169
▁available	-1170
▁App	-1171
▁prep	-1172
▁used	-1173
ricted	-1174
▁receipt	-1175
▁determined	-1176
mission	-1177
▁employees	-1178
ere	-1179
vic	-1180
EMENT	-1181
▁however	-1182
▁amendment	-1183
ash	-1184
▁payments	-1185
lied	-1186
▁signed	-1187
▁service	-1188
▁violation	-1189
▁cop	-1190
▁Affiliates	-1191
▁directors	-1192
liance	-1193
ensation	-1194
▁.	-1195
▁obtain	-1196
imb	-1197
persed	-1198
▁supersed	-1199
utes	-1200
▁Guarant	-1201
RIS	-1202
oli	-1203
arent	-1204
▁authority	-1205
▁withholding	-1206
▁continue	-1207
▁officers	-1208
▁condition	-1209
ership	-1210
▁knowledge	-1211
VE	-1212
rol	-1213
ting	-1214
▁Reg	-1215
▁Sal	-1216
▁could	-1217
▁public	-1218
ark	-1219
▁reimb	-1220
▁Indemn	-1221
▁manner	-1222
▁notices	-1223
▁benefits	-1224
▁governed	-1225
pre	-1226
▁proper	-1227
▁AGREEMENT	-1228
ous	-1229
clusive	-1230
▁transaction	-1231
ronic	-1232
▁Lease	-1233
▁execute	-1234
▁warranties	-1235
▁BE	-1236
▁al	-1237
ex	-1238
▁im	-1239
▁assignment	-1240
▁default	-1241
▁who	-1242
▁portion	-1243
▁Landlord	-1244
▁successors	-1245
▁Parent	-1246
▁record	-1247
ice	-1248
▁Go	-1249
▁bo	-1250
▁provide	-1251
▁unenforceable	-1252
AW	-1253
low	-1254
ney	-1255
cing	-1256
ution	-1257
▁before	-1258
▁Default	-1259
▁$	-1260
▁power	-1261
tigation	-1262
▁Obligations	-1263
▁Su	-1264
reat	-1265
tives	-1266
torney	-1267
▁regard	-1268
▁remedies	-1269
und	-1270
urn	-1271
▁signature	-1272
.2	-1273
▁document	-1274
▁electronic	-1275
twith	-1276
▁giving	-1277
▁interpre	-1278
▁Restricted	-1279
twithstanding	-1280
▁7	-1281
udg	-1282
▁PRO	-1283
ph	-1284
▁inj	-1285
▁Assign	-1286
▁Notwithstanding	-1287
ending	-1288
▁counsel	-1289
▁respons	-1290
▁covenants	-1291
ered	-1292
rust	-1293
▁were	-1294
▁assigns	-1295
ry	-1296
▁take	-1297
UT	-1298
llect	-1299
▁occur	-1300
▁principles	-1301
cum	-1302
cribed	-1303
▁attorney	-1304
▁k	-1305
ures	-1306
▁thir	-1307
▁policies	-1308
▁respects	-1309
▁enforcement	-1310
ight	-1311
▁where	-1312
▁actions	-1313
▁release	-1314
rue	-1315
▁LAW	-1316
▁individ	-1317
oin	-1318
▁Ser	-1319
▁plan	-1320
ements	-1321
▁first	-1322
▁ir	-1323
ound	-1324
urrent	-1325
ad	-1326
▁Part	-1327
▁disp	-1328
▁promp	-1329
▁Business	-1330
▁requested	-1331
▁adv	-1332
▁judg	-1333
ayment	-1334
▁Option	-1335
ative	-1336
ecured	-1337
▁limited	-1338
▁purchase	-1339
ganization	-1340
CA	-1341
▁For	-1342
▁ret	-1343
▁process	-1344
▁approval	-1345
iately	-1346
▁Sections	-1347
▁understandings	-1348
▁irre	-1349
▁Guarantor	-1350
asis	-1351
rang	-1352
▁Day	-1353
rator	-1354
▁acqu	-1355
▁fact	-1356
▁terminated	-1357
▁THAT	-1358
▁oral	-1359
▁they	-1360
▁immed	-1361
▁basis	-1362
▁certific	-1363
▁acknowled	-1364
▁additional	-1365
▁8	-1366
vest	-1367
▁Inc	-1368
ticle	-1369
lement	-1370
▁directly	-1371
lace	-1372
olid	-1373
▁Period	-1374
▁discre	-1375
▁discretion	-1376
voc	-1377
▁Acc	-1378
▁design	-1379
▁remedy	-1380
▁appropri	-1381
▁security	-1382
▁regulations	-1383
CT	-1384
▁Ch	-1385
▁cash	-1386
▁Invest	-1387
▁damages	-1388
▁compliance	-1389
tellect	-1390
ading	-1391
tellectual	-1392
▁reference	-1393
ine	-1394
▁your	-1395
ension	-1396
▁through	-1397
TY	-1398
▁sc	-1399
▁dem	-1400
▁Article	-1401
abilities	-1402
thing	-1403
▁Base	-1404
iration	-1405
▁consolid	-1406
▁immediately	-1407
▁return	-1408
▁present	-1409
▁Employment	-1410
LL	-1411
king	-1412
▁faith	-1413
▁Govern	-1414
til	-1415
▁demand	-1416
▁appropriate	-1417
tered	-1418
▁duties	-1419
VER	-1420
ater	-1421
▁ear	-1422
▁restri	-1423
▁granted	-1424
▁described	-1425
▁(1	-1426
▁subs	-1427
▁promptly	-1428
▁enforceable	-1429
LI	-1430
▁adj	-1431
▁continu	-1432
orts	-1433
▁does	-1434
▁Laws	-1435
▁those	-1436
TR	-1437
loss	-1438
▁credit	-1439
orporate	-1440
▁proceeds	-1441
▁terminate	-1442
▁properties	-1443
▁counterpart	-1444
ged	-1445
▁SUCH	-1446
▁loss	-1447
▁until	-1448
▁threat	-1449
.3	-1450
fied	-1451
▁way	-1452
▁arrang	-1453
istration	-1454
▁proceedings	-1455
▁tw	-1456
▁2016	-1457
▁Author	-1458
▁requirements	-1459
▁att	-1460
▁United	-1461
▁agents	-1462
▁confidential	-1463
ass	-1464
▁WAI	-1465
olving	-1466
TS	-1467
ished	-1468
ITH	-1469
oid	-1470
vices	-1471
▁fully	-1472
▁rules	-1473
istered	-1474
▁comply	-1475
▁conver	-1476
▁modified	-1477
raph	-1478
▁Noti	-1479
▁month	-1480
ACH	-1481
▁States	-1482
▁personal	-1483
▁En	-1484
ortg	-1485
▁JUR	-1486
losed	-1487
holders	-1488
▁affili	-1489
▁comple	-1490
▁Secured	-1491
▁general	-1492
▁indirect	-1493
▁governmental	-1494
alue	-1495
▁cre	-1496
▁inves	-1497
▁referred	-1498
▁specified	-1499
▁compensation	-1500
TO	-1501
ove	-1502
▁TR	-1503
TIES	-1504
ened	-1505
▁held	-1506
▁poss	-1507
▁injun	-1508
▁renew	-1509
▁exclusive	-1510
▁principal	-1511
▁Pre	-1512
▁expiration	-1513
▁liabilities	-1514
▁COUR	-1515
goti	-1516
▁car	-1517
▁Rele	-1518
▁threatened	-1519
▁Governmental	-1520
DI	-1521
▁Pri	-1522
▁EACH	-1523
▁adverse	-1524
ks	-1525
▁substan	-1526
▁constitutes	-1527
AS	-1528
sp	-1529
▁"	-1530
▁Event	-1531
▁solely	-1532
▁judgment	-1533
▁validity	-1534
ap	-1535
ou	-1536
irm	-1537
ases	-1538
ning	-1539
▁WITH	-1540
▁acce	-1541
laware	-1542
▁income	-1543
▁negoti	-1544
▁officer	-1545
▁Interest	-1546
▁acknowledges	-1547
▁transmission	-1548
ustom	-1549
▁conc	-1550
▁include	-1551
▁subsidi	-1552
▁Delaware	-1553
▁individually	-1554
ial	-1555
▁cir	-1556
▁PARTY	-1557
▁Warran	-1558
▁employee	-1559
▁instruments	-1560
itle	-1561
▁cor	-1562
▁ded	-1563
▁tra	-1564
▁suit	-1565
atives	-1566
▁enfor	-1567
▁Salary	-1568
▁circum	-1569
▁irrevoc	-1570
▁consummation	-1571
AY	-1572
op	-1573
ider	-1574
▁REL	-1575
▁above	-1576
▁bound	-1577
▁cover	-1578
▁gener	-1579
▁Guaran	-1580
▁existing	-1581
▁Borrowers	-1582
▁(“	-1583
▁was	-1584
▁Code	-1585
esting	-1586
ermination	-1587
▁attorneys	-1588
▁disclosed	-1589
el	-1590
▁K	-1591
ATE	-1592
itial	-1593
▁reli	-1594
▁local	-1595
▁Issuing	-1596
▁EX	-1597
ATION	-1598
▁Intellectual	-1599
ame	-1600
ier	-1601
▁cal	-1602
▁dedu	-1603
▁third	-1604
nership	-1605
▁expense	-1606
▁corporate	-1607
0)	-1608
▁(3	-1609
econd	-1610
▁both	-1611
▁less	-1612
agraph	-1613
▁below	-1614
▁Direct	-1615
▁current	-1616
TER	-1617
one	-1618
ents	-1619
▁equal	-1620
▁adjust	-1621
▁11	-1622
ring	-1623
▁”),	-1624
▁redu	-1625
▁filing	-1626
▁matters	-1627
▁arbitrator	-1628
dequ	-1629
▁copy	-1630
▁reco	-1631
▁share	-1632
▁whole	-1633
stances	-1634
▁contract	-1635
▁reimburs	-1636
▁interpret	-1637
ATI	-1638
HAL	-1639
ached	-1640
▁qual	-1641
▁change	-1642
▁arbitration	-1643
ency	-1644
ille	-1645
sequ	-1646
▁Rate	-1647
▁long	-1648
arding	-1649
▁commit	-1650
▁pending	-1651
▁Affiliate	-1652
▁application	-1653
▁representation	-1654
icer	-1655
▁Man	-1656
▁furn	-1657
▁courts	-1658
ix	-1659
▁Liens	-1660
▁generally	-1661
▁regarding	-1662
▁supersedes	-1663
air	-1664
▁ST	-1665
roll	-1666
rued	-1667
mises	-1668
▁Requ	-1669
istent	-1670
▁incre	-1671
ectively	-1672
▁Investor	-1673
whe	-1674
ives	-1675
▁lic	-1676
▁There	-1677
▁final	-1678
▁Officer	-1679
▁PARTIES	-1680
▁disclosure	-1681
▁LI	-1682
▁NO	-1683
▁To	-1684
▁Deb	-1685
ission	-1686
ptions	-1687
▁Authority	-1688
▁registered	-1689
▁Termination	-1690
▁communications	-1691
HALL	-1692
▁ille	-1693
▁prac	-1694
▁illegal	-1695
▁irrevocably	-1696
ger	-1697
RISA	-1698
▁Gen	-1699
▁them	-1700
▁ERISA	-1701
▁SHALL	-1702
▁award	-1703
▁enter	-1704
▁owned	-1705
▁sever	-1706
▁actual	-1707
▁Security	-1708
DER	-1709
▁cla	-1710
▁est	-1711
▁Taxes	-1712
▁enforced	-1713
▁intended	-1714
ind	-1715
arket	-1716
▁post	-1717
▁based	-1718
▁Control	-1719
▁affecting	-1720
▁conducted	-1721
▁representatives	-1722
▁Ne	-1723
▁ev	-1724
pose	-1725
▁Issuer	-1726
▁Indemnit	-1727
▁consents	-1728
▁consolidated	-1729
xt	-1730
very	-1731
▁eng	-1732
▁supp	-1733
▁ACTION	-1734
▁General	-1735
▁thereby	-1736
ful	-1737
▁end	-1738
▁”).	-1739
▁stat	-1740
▁accept	-1741
▁indemnify	-1742
CAB	-1743
atory	-1744
▁name	-1745
▁sell	-1746
fe	-1747
ient	-1748
oper	-1749
itable	-1750
▁custom	-1751
▁neither	-1752
▁subsidiaries	-1753
MP	-1754
▁manag	-1755
▁separ	-1756
▁value	-1757
▁making	-1758
▁affiliates	-1759
▁modification	-1760
BY	-1761
ot	-1762
▁bank	-1763
▁hand	-1764
▁adequ	-1765
▁amend	-1766
▁least	-1767
hedules	-1768
▁Member	-1769
▁report	-1770
▁Subject	-1771
▁conduct	-1772
▁purpose	-1773
▁contrary	-1774
▁Information	-1775
NG	-1776
▁ru	-1777
hief	-1778
▁hold	-1779
▁rule	-1780
tially	-1781
▁advis	-1782
▁issue	-1783
▁concer	-1784
▁entity	-1785
▁Exchange	-1786
▁certified	-1787
▁indirectly	-1788
▁enforceability	-1789
IG	-1790
▁Units	-1791
▁later	-1792
▁resul	-1793
whether	-1794
▁policy	-1795
▁consider	-1796
▁warrants	-1797
▁interests	-1798
▁regulation	-1799
▁specifically	-1800
▁Per	-1801
▁eff	-1802
▁what	-1803
▁apply	-1804
▁relief	-1805
▁exchange	-1806
▁circumstances	-1807
OC	-1808
▁Equ	-1809
▁fee	-1810
▁give	-1811
▁earli	-1812
▁invest	-1813
▁Corporation	-1814
emp	-1815
▁sing	-1816
formed	-1817
▁inure	-1818
▁Change	-1819
▁services	-1820
▁concerning	-1821
rect	-1822
▁had	-1823
▁mis	-1824
▁off	-1825
▁suff	-1826
▁Mortg	-1827
▁Trust	-1828
▁plans	-1829
▁cooper	-1830
▁dispute	-1831
▁receive	-1832
▁validly	-1833
▁extension	-1834
▁thereunder	-1835
rupt	-1836
▁aud	-1837
▁Applic	-1838
▁having	-1839
▁Employer	-1840
▁thereafter	-1841
▁Fin	-1842
▁Rec	-1843
▁fair	-1844
▁among	-1845
▁carry	-1846
▁title	-1847
mpanies	-1848
▁Notice	-1849
▁agreed	-1850
▁interpretation	-1851
▁12	-1852
imum	-1853
▁years	-1854
fidential	-1855
▁complete	-1856
▁addressed	-1857
▁arrangements	-1858
LE	-1859
▁At	-1860
arge	-1861
erger	-1862
enture	-1863
rought	-1864
sequent	-1865
▁HERETO	-1866
formance	-1867
▁Exhibit	-1868
▁charges	-1869
▁Purchasers	-1870
▁operations	-1871
▁satisfaction	-1872
▁investigation	-1873
1,	-1874
ECT	-1875
set	-1876
▁AP	-1877
▁di	-1878
▁mut	-1879
ruptcy	-1880
tention	-1881
▁brought	-1882
▁Purchase	-1883
2)	-1884
aged	-1885
▁Rev	-1886
▁dist	-1887
▁kind	-1888
▁submit	-1889
▁meaning	-1890
▁Guaranty	-1891
▁organization	-1892
eal	-1893
▁DE	-1894
roup	-1895
▁Coun	-1896
▁prot	-1897
▁periods	-1898
▁Commitment	-1899
▁consistent	-1900
.4	-1901
__	-1902
ght	-1903
ium	-1904
ost	-1905
CEED	-1906
ness	-1907
▁Exp	-1908
UMENT	-1909
▁Such	-1910
soever	-1911
▁press	-1912
▁equitable	-1913
▁responsible	-1914
ker	-1915
▁NE	-1916
held	-1917
▁2.1	-1918
losure	-1919
▁Repor	-1920
▁waive	-1921
▁Second	-1922
▁annual	-1923
▁PROCEED	-1924
▁Release	-1925
▁violate	-1926
▁withheld	-1927
▁Commitments	-1928
fy	-1929
arm	-1930
unds	-1931
▁Rep	-1932
▁know	-1933
▁three	-1934
▁salary	-1935
▁accrued	-1936
▁adequate	-1937
▁included	-1938
▁subsequent	-1939
▁whatsoever	-1940
ily	-1941
▁UN	-1942
▁DOC	-1943
idence	-1944
▁reser	-1945
▁compet	-1946
▁DOCUMENT	-1947
▁prohibit	-1948
▁Revolving	-1949
▁Performance	-1950
FI	-1951
our	-1952
ident	-1953
▁must	-1954
▁rate	-1955
▁waives	-1956
,000,000	-1957
▁courier	-1958
▁attached	-1959
▁benefici	-1960
▁competent	-1961
▁conflicts	-1962
▁PROCEEDING	-1963
.01	-1964
vor	-1965
▁LO	-1966
▁Upon	-1967
▁Benef	-1968
▁STATE	-1969
▁overn	-1970
▁correct	-1971
▁affected	-1972
▁obtained	-1973
▁overnight	-1974
▁consideration	-1975
II	-1976
ia	-1977
PRE	-1978
ish	-1979
ared	-1980
▁MAY	-1981
▁also	-1982
▁true	-1983
▁First	-1984
▁HEREBY	-1985
▁disclose	-1986
▁Directors	-1987
CC	-1988
▁Ac	-1989
▁now	-1990
▁Comp	-1991
▁assu	-1992
▁file	-1993
▁COURT	-1994
▁Grantee	-1995
▁litigation	-1996
.,	-1997
ires	-1998
urse	-1999
▁harm	-2000
▁impos	-2001
▁furnished	-2002
▁remaining	-2003
UN	-2004
ular	-2005
▁del	-2006
▁LOAN	-2007
▁During	-2008
▁Permit	-2009
▁assigned	-2010
▁Applicable	-2011
▁substantially	-2012
AA	-2013
ath	-2014
▁ARIS	-2015
except	-2016
▁copies	-2017
▁waived	-2018
ribution	-2019
▁control	-2020
▁reports	-2021
▁separate	-2022
▁warranty	-2023
▁performed	-2024
▁acknowledge	-2025
mail	-2026
▁Dis	-2027
▁Fac	-2028
▁two	-2029
ledge	-2030
▁work	-2031
▁Chief	-2032
▁exceed	-2033
▁holder	-2034
▁Account	-2035
▁results	-2036
▁incorpor	-2037
▁responsib	-2038
IGH	-2039
ORK	-2040
ram	-2041
see	-2042
view	-2043
▁NEW	-2044
▁deb	-2045
▁With	-2046
▁over	-2047
▁nature	-2048
▁preced	-2049
▁Neither	-2050
▁Statement	-2051
▁registration	-2052
MIT	-2053
tern	-2054
ights	-2055
▁RIGH	-2056
▁YORK	-2057
▁perf	-2058
stance	-2059
▁grant	-2060
▁place	-2061
▁Warrant	-2062
▁earlier	-2063
▁position	-2064
▁communication	-2065
▁participation	-2066
endar	-2067
iscal	-2068
▁Manag	-2069
▁Rights	-2070
▁calendar	-2071
▁director	-2072
▁represents	-2073
▁Partnership	-2074
▁Confidential	-2075
▁construction	-2076
lap	-2077
ATED	-2078
▁via	-2079
ancing	-2080
▁practi	-2081
▁foreign	-2082
▁prepaid	-2083
isclosure	-2084
SU	-2085
”)	-2086
cri	-2087
din	-2088
▁Se	-2089
coll	-2090
ctive	-2091
ording	-2092
▁Claim	-2093
▁cance	-2094
▁disch	-2095
erially	-2096
▁conven	-2097
paration	-2098
▁coverage	-2099
collectively	-2100
▁indemnification	-2101
SA	-2102
▁)	-2103
ior	-2104
ite	-2105
ory	-2106
duct	-2107
▁void	-2108
icient	-2109
▁ARISING	-2110
▁anything	-2111
▁authoriz	-2112
▁paragraph	-2113
▁materially	-2114
ss	-2115
.1(	-2116
IAL	-2117
eep	-2118
ler	-2119
gram	-2120
ival	-2121
uses	-2122
▁APP	-2123
▁PER	-2124
▁iden	-2125
adings	-2126
isting	-2127
▁agency	-2128
▁clause	-2129
▁Holding	-2130
▁records	-2131
▁occurred	-2132
▁commitments	-2133
▁incorporated	-2134
▁restrictions	-2135
emb	-2136
oci	-2137
▁EN	-2138
alance	-2139
anding	-2140
▁death	-2141
▁serve	-2142
▁assess	-2143
▁exercis	-2144
▁Indemnitee	-2145
▁accounting	-2146
abl	-2147
acts	-2148
tter	-2149
▁NOT	-2150
▁Tra	-2151
▁bro	-2152
rence	-2153
▁Cour	-2154
▁sett	-2155
▁course	-2156
▁standing	-2157
▁reimburse	-2158
▁determination	-2159
ta	-2160
▁[	-2161
ata	-2162
gin	-2163
sol	-2164
tib	-2165
rict	-2166
vant	-2167
▁vac	-2168
actor	-2169
▁asser	-2170
▁review	-2171
▁Service	-2172
▁covenant	-2173
)(	-2174
.5	-2175
▁AM	-2176
▁Or	-2177
▁she	-2178
ATING	-2179
acity	-2180
ollar	-2181
▁JURY	-2182
▁keep	-2183
▁next	-2184
▁trust	-2185
▁timely	-2186
▁consult	-2187
▁19	-2188
▁Not	-2189
▁fut	-2190
▁2015	-2191
▁inde	-2192
▁join	-2193
▁page	-2194
▁future	-2195
▁months	-2196
▁stated	-2197
▁Nothing	-2198
▁confirm	-2199
▁entered	-2200
▁payroll	-2201
▁returns	-2202
▁Holdings	-2203
▁RELATING	-2204
▁commence	-2205
▁hereafter	-2206
▁businesses	-2207
▁investment	-2208
▁certificates	-2209
PRES	-2210
vile	-2211
▁Lic	-2212
▁last	-2213
▁word	-2214
▁ordin	-2215
leading	-2216
▁notwith	-2217
▁section	-2218
▁Facility	-2219
▁prepared	-2220
▁notwithstanding	-2221
▁IR	-2222
▁omit	-2223
▁lease	-2224
▁letter	-2225
▁another	-2226
▁balance	-2227
▁privile	-2228
▁assignee	-2229
▁certificate	-2230
co	-2231
mal	-2232
paid	-2233
iving	-2234
posed	-2235
▁diff	-2236
▁Prior	-2237
▁delay	-2238
▁favor	-2239
▁offer	-2240
▁intent	-2241
▁option	-2242
▁Partner	-2243
▁harmless	-2244
▁vacation	-2245
▁Assignment	-2246
US	-2247
AAP	-2248
FOR	-2249
olved	-2250
apital	-2251
▁commen	-2252
▁establ	-2253
▁acceler	-2254
▁applied	-2255
▁possible	-2256
▁Represent	-2257
▁misleading	-2258
.6	-2259
DE	-2260
cent	-2261
▁FOR	-2262
▁base	-2263
▁pres	-2264
embers	-2265
idered	-2266
▁WAIVER	-2267
▁damage	-2268
▁Initial	-2269
▁defense	-2270
▁prevent	-2271
▁existence	-2272
▁operation	-2273
▁therewith	-2274
▁considered	-2275
▁reimbursement	-2276
▁administrative	-2277
VO	-2278
ey	-2279
▁HA	-2280
udic	-2281
ivers	-2282
▁Subs	-2283
▁none	-2284
ession	-2285
lected	-2286
▁Group	-2287
▁fiscal	-2288
▁normal	-2289
▁confidentiality	-2290
5)	-2291
laws	-2292
▁coll	-2293
▁dele	-2294
▁Share	-2295
▁THERE	-2296
▁identi	-2297
▁evidence	-2298
▁bankruptcy	-2299
▁personally	-2300
▁sufficient	-2301
▁Po	-2302
bted	-2303
oice	-2304
▁31,	-2305
▁GAAP	-2306
▁chan	-2307
GATION	-2308
andard	-2309
atures	-2310
▁Notes	-2311
▁TRIAL	-2312
▁single	-2313
btedness	-2314
▁conveni	-2315
▁capacity	-2316
▁relevant	-2317
▁Permitted	-2318
▁adversely	-2319
▁preceding	-2320
gn	-2321
ural	-2322
utom	-2323
essee	-2324
▁Grant	-2325
▁dates	-2326
▁funds	-2327
actions	-2328
ceeding	-2329
▁losses	-2330
▁located	-2331
▁options	-2332
▁ownership	-2333
▁providing	-2334
▁designated	-2335
▁injunction	-2336
3,	-2337
AIM	-2338
LAIM	-2339
here	-2340
▁(1)	-2341
▁sit	-2342
vency	-2343
▁Cons	-2344
▁Contr	-2345
▁indic	-2346
ertific	-2347
▁proced	-2348
▁vested	-2349
▁implied	-2350
▁satisfy	-2351
▁vesting	-2352
▁headings	-2353
▁practices	-2354
▁supersede	-2355
▁corporation	-2356
▁30	-2357
each	-2358
wing	-2359
▁boo	-2360
etary	-2361
▁CONS	-2362
▁Debt	-2363
▁acti	-2364
▁Other	-2365
▁acting	-2366
▁powers	-2367
▁recogn	-2368
▁administ	-2369
▁Transactions	-2370
▁authorization	-2371
rd	-2372
ood	-2373
▁LC	-2374
ANCE	-2375
ISDI	-2376
atic	-2377
ests	-2378
omes	-2379
self	-2380
▁DIS	-2381
▁Dec	-2382
▁autom	-2383
▁ended	-2384
▁insol	-2385
▁JURISDI	-2386
▁successor	-2387
▁Disclosure	-2388
▁prohibited	-2389
▁JURISDICTION	-2390
▁up	-2391
▁OUT	-2392
▁ten	-2393
▁una	-2394
enior	-2395
which	-2396
▁most	-2397
▁incur	-2398
▁known	-2399
▁exhibit	-2400
▁Certific	-2401
▁Financial	-2402
);	-2403
▁sum	-2404
ously	-2405
tible	-2406
▁Supp	-2407
▁prom	-2408
▁decree	-2409
▁intern	-2410
▁company	-2411
▁percent	-2412
▁decision	-2413
▁extended	-2414
▁increase	-2415
▁publicly	-2416
▁cooperate	-2417
▁currently	-2418
▁Agreements	-2419
▁occurrence	-2420
organization	-2421
▁pl	-2422
ical	-2423
▁aff	-2424
▁HAVE	-2425
▁avoid	-2426
▁depos	-2427
▁Payment	-2428
▁Persons	-2429
▁efforts	-2430
▁December	-2431
▁Premises	-2432
▁contains	-2433
▁automatic	-2434
▁customary	-2435
▁maintained	-2436
▁regulatory	-2437
▁Compensation	-2438
▁Registration	-2439
con	-2440
▁40	-2441
▁LEN	-2442
▁com	-2443
ister	-2444
ocket	-2445
▁Form	-2446
▁accep	-2447
▁previ	-2448
▁words	-2449
▁LENDER	-2450
▁Reports	-2451
▁renewal	-2452
▁Commission	-2453
▁negotiations	-2454
enue	-2455
iron	-2456
▁lap	-2457
clude	-2458
▁IRRE	-2459
▁unre	-2460
actory	-2461
udited	-2462
▁Swing	-2463
▁light	-2464
▁means	-2465
▁others	-2466
▁Federal	-2467
▁Require	-2468
▁demands	-2469
▁persons	-2470
▁approved	-2471
▁ordinary	-2472
▁satisfied	-2473
▁signatures	-2474
▁satisfactory	-2475
OW	-2476
UD	-2477
ack	-2478
▁San	-2479
▁her	-2480
VOCAB	-2481
cribe	-2482
viron	-2483
▁Acqu	-2484
▁five	-2485
▁free	-2486
mption	-2487
▁audit	-2488
ligible	-2489
▁Equity	-2490
▁commer	-2491
▁unpaid	-2492
iversary	-2493
▁requests	-2494
▁IRREVOCAB	-2495
▁convenience	-2496
des	-2497
hird	-2498
istr	-2499
vail	-2500
ances	-2501
arily	-2502
▁City	-2503
▁Court	-2504
▁books	-2505
▁lapse	-2506
▁Dollar	-2507
▁Unless	-2508
▁notify	-2509
lacement	-2510
▁Capital	-2511
▁Mortgage	-2512
▁acquired	-2513
▁meanings	-2514
▁proposed	-2515
▁contracts	-2516
▁insolvency	-2517
▁IRREVOCABLY	-2518
ali	-2519
rat	-2520
▁15	-2521
▁WAIV	-2522
▁flow	-2523
▁Order	-2524
▁RIGHT	-2525
▁Assets	-2526
▁Servic	-2527
▁insure	-2528
▁underta	-2529
▁exhibits	-2530
▁sentence	-2531
vironmental	-2532
▁continuing	-2533
▁regardless	-2534
▁subsection	-2535
▁Certificate	-2536
▁Stockholder	-2537
▁reorganization	-2538
,”	-2539
ID	-2540
ORD	-2541
TED	-2542
cul	-2543
TENT	-2544
burs	-2545
ists	-2546
ulti	-2547
▁ALL	-2548
▁Adv	-2549
▁can	-2550
▁ris	-2551
spect	-2552
▁Days	-2553
▁Inde	-2554
▁Arbit	-2555
▁CLAIM	-2556
▁times	-2557
ational	-2558
▁excess	-2559
▁market	-2560
▁Grantor	-2561
▁statute	-2562
▁mutually	-2563
▁schedules	-2564
▁anniversary	-2565
ip	-2566
ury	-2567
▁1,	-2568
eric	-2569
pend	-2570
quid	-2571
▁You	-2572
▁cle	-2573
▁dra	-2574
arter	-2575
ently	-2576
uting	-2577
▁CONT	-2578
▁vest	-2579
▁whom	-2580
▁APPLI	-2581
▁venue	-2582
▁Americ	-2583
▁Market	-2584
resident	-2585
▁engaged	-2586
▁operate	-2587
▁herewith	-2588
▁omission	-2589
▁discharge	-2590
▁requirement	-2591
-1	-2592
vo	-2593
▁IS	-2594
▁It	-2595
▁Sp	-2596
erve	-2597
vers	-2598
▁RES	-2599
▁see	-2600
gated	-2601
▁bear	-2602
HETHER	-2603
cially	-2604
itions	-2605
▁AGENT	-2606
▁money	-2607
▁refer	-2608
▁members	-2609
▁postage	-2610
▁Existing	-2611
▁companies	-2612
▁conversion	-2613
▁participate	-2614
▁stockholders	-2615
CL	-2616
ISE	-2617
vey	-2618
▁On	-2619
true	-2620
▁BOR	-2621
▁SUB	-2622
▁LAWS	-2623
▁beli	-2624
▁real	-2625
livery	-2626
▁Offer	-2627
▁clear	-2628
ligence	-2629
▁covered	-2630
▁imposed	-2631
▁avoidance	-2632
▁indicated	-2633
▁qualified	-2634
▁acceptable	-2635
▁procedures	-2636
▁organizational	-2637
IP	-2638
df	-2639
.03	-2640
MPL	-2641
ned	-2642
”),	-2643
▁IT	-2644
▁(3)	-2645
▁Rece	-2646
surance	-2647
▁WAIVES	-2648
▁itself	-2649
▁untrue	-2650
▁ability	-2651
▁fullest	-2652
▁program	-2653
▁employed	-2654
▁licenses	-2655
▁reserves	-2656
▁President	-2657
▁creditors	-2658
▁repayment	-2659
ST	-2660
▁Q	-2661
ROW	-2662
cts	-2663
not	-2664
WISE	-2665
cles	-2666
ners	-2667
▁min	-2668
▁pen	-2669
ticles	-2670
▁Regul	-2671
▁belie	-2672
▁price	-2673
▁reput	-2674
jection	-2675
▁Awards	-2676
▁financing	-2677
▁unaudited	-2678
▁amendments	-2679
▁supplement	-2680
▁Indemnified	-2681
RED	-2682
nia	-2683
ubt	-2684
▁13	-2685
▁AD	-2686
▁LL	-2687
ANSA	-2688
OVER	-2689
lass	-2690
▁pat	-2691
▁tri	-2692
ROWER	-2693
erent	-2694
eries	-2695
▁Cali	-2696
▁like	-2697
fornia	-2698
lative	-2699
pocket	-2700
unding	-2701
▁ENFOR	-2702
▁Third	-2703
▁doubt	-2704
▁penal	-2705
▁EXTENT	-2706
▁TRANSA	-2707
▁broker	-2708
▁Trading	-2709
▁disburs	-2710
▁internal	-2711
▁OTHERWISE	-2712
▁different	-2713
▁California	-2714
▁Arbitration	-2715
▁TRANSACTION	-2716
▁restriction	-2717
▁automatically	-2718
OF	-2719
END	-2720
ITY	-2721
MIN	-2722
lor	-2723
ough	-2724
ensed	-2725
stood	-2726
▁PROV	-2727
▁ques	-2728
vities	-2729
▁suits	-2730
▁created	-2731
▁Assignee	-2732
▁activities	-2733
▁injunctive	-2734
▁understood	-2735
▁interpreted	-2736
irs	-2737
ody	-2738
off	-2739
ause	-2740
▁(2)	-2741
▁gro	-2742
CABLE	-2743
OVERN	-2744
ordin	-2745
▁Enti	-2746
▁show	-2747
entive	-2748
▁heirs	-2749
▁GOVERN	-2750
▁Lessee	-2751
▁appoin	-2752
▁mailed	-2753
▁member	-2754
▁merger	-2755
▁thirty	-2756
▁cancell	-2757
▁filings	-2758
▁initial	-2759
▁BORROWER	-2760
▁Required	-2761
▁withhold	-2762
▁Borrowing	-2763
▁Schedules	-2764
▁APPLICABLE	-2765
Co	-2766
SE	-2767
NOW	-2768
▁AS	-2769
▁Ind	-2770
▁Dist	-2771
▁Oper	-2772
▁RESP	-2773
▁deal	-2774
▁insu	-2775
▁Incre	-2776
▁choice	-2777
▁preemp	-2778
▁retain	-2779
▁Subscri	-2780
▁unreason	-2781
▁addresses	-2782
▁determine	-2783
▁executive	-2784
▁resulting	-2785
▁acceleration	-2786
▁representative	-2787
7,	-2788
▁X	-2789
:00	-2790
SUs	-2791
als	-2792
vel	-2793
ince	-2794
velo	-2795
▁ACC	-2796
▁ITS	-2797
▁leg	-2798
isite	-2799
ranch	-2800
▁acts	-2801
▁guar	-2802
demark	-2803
▁Appro	-2804
pendent	-2805
▁extend	-2806
▁impair	-2807
▁office	-2808
▁Consult	-2809
▁Letters	-2810
▁SECTION	-2811
▁Trustee	-2812
▁jointly	-2813
▁Delivery	-2814
▁requires	-2815
▁standard	-2816
▁relations	-2817
▁subscribe	-2818
▁recognized	-2819
▁Indebtedness	-2820
ACT	-2821
ane	-2822
app	-2823
ide	-2824
kes	-2825
▁el	-2826
▁vo	-2827
comp	-2828
cumb	-2829
▁Mar	-2830
▁him	-2831
urate	-2832
solute	-2833
▁Polic	-2834
▁organ	-2835
▁ACCORD	-2836
▁County	-2837
▁Merger	-2838
▁fairly	-2839
▁liable	-2840
▁Vesting	-2841
▁acquire	-2842
▁becomes	-2843
▁closing	-2844
▁insurer	-2845
▁deduction	-2846
▁indemnity	-2847
▁privilege	-2848
▁settlement	-2849
▁arrangement	-2850
▁distribution	-2851
▁incorporation	-2852
UL	-2853
man	-2854
▁LE	-2855
▁gre	-2856
▁max	-2857
▁3.1(	-2858
▁need	-2859
ertain	-2860
rators	-2861
▁email	-2862
▁sales	-2863
PRESENT	-2864
▁modify	-2865
▁Related	-2866
▁maximum	-2867
▁REPRESENT	-2868
▁involving	-2869
▁reduction	-2870
▁severance	-2871
▁ACCORDANCE	-2872
▁Proceeding	-2873
▁Representative	-2874
.02	-2875
500	-2876
eti	-2877
▁14	-2878
▁By	-2879
▁2.2	-2880
▁5.1	-2881
▁port	-2882
▁Price	-2883
▁owing	-2884
▁trade	-2885
▁Administ	-2886
▁GOVERNED	-2887
▁involved	-2888
▁Preferred	-2889
▁commission	-2890
ORE	-2891
tal	-2892
▁$1	-2893
▁ON	-2894
▁op	-2895
ecre	-2896
ises	-2897
rain	-2898
▁Ori	-2899
▁Tim	-2900
▁neg	-2901
ducts	-2902
stand	-2903
▁dire	-2904
ciation	-2905
▁appear	-2906
▁occurs	-2907
▁advance	-2908
▁conting	-2909
▁Transfer	-2910
▁advisors	-2911
▁promises	-2912
▁releases	-2913
▁Companies	-2914
▁according	-2915
▁consummate	-2916
▁understand	-2917
▁assessments	-2918
▁disbursements	-2919
AC	-2920
ION	-2921
ORT	-2922
hen	-2923
tire	-2924
▁4.1	-2925
▁Pay	-2926
▁six	-2927
fring	-2928
▁lien	-2929
▁soon	-2930
▁forfe	-2931
isition	-2932
ividend	-2933
ticular	-2934
udicial	-2935
▁instit	-2936
ditional	-2937
▁Consent	-2938
▁Holders	-2939
▁changes	-2940
▁perfect	-2941
▁protect	-2942
▁thereon	-2943
▁absolute	-2944
▁creation	-2945
▁Insurance	-2946
▁Interests	-2947
▁materials	-2948
▁adjustment	-2949
▁individual	-2950
▁particular	-2951
▁convertible	-2952
▁negotiation	-2953
▁shareholders	-2954
AIN	-2955
LED	-2956
err	-2957
ope	-2958
pdf	-2959
”).	-2960
exas	-2961
mium	-2962
tary	-2963
▁Res	-2964
ealth	-2965
▁LITI	-2966
▁CONTR	-2967
▁Texas	-2968
▁asset	-2969
▁flows	-2970
▁AGREES	-2971
▁Amount	-2972
▁Receiv	-2973
▁render	-2974
▁Dollars	-2975
reciation	-2976
▁disputes	-2977
▁therefor	-2978
ditionally	-2979
▁contested	-2980
▁organized	-2981
▁invalidity	-2982
▁exercisable	-2983
▁limitations	-2984
▁relationship	-2985
▁Environmental	-2986
TRU	-2987
ech	-2988
▁(2	-2989
▁ho	-2990
ALLY	-2991
RECT	-2992
ecop	-2993
▁Des	-2994
acter	-2995
▁(30)	-2996
▁bond	-2997
▁indu	-2998
▁prof	-2999
▁sets	-3000
▁sold	-3001
ifying	-3002
▁dated	-3003
▁risks	-3004
▁uncon	-3005
spectus	-3006
▁caused	-3007
▁eviden	-3008
▁resign	-3009
▁should	-3010
tirement	-3011
▁CONSTRU	-3012
▁offices	-3013
▁partial	-3014
▁reflect	-3015
▁Assignor	-3016
▁preclude	-3017
▁character	-3018
▁LITIGATION	-3019
▁preemptive	-3020
▁recordation	-3021
▁unreasonably	-3022
▁Administrator	-3023
30	-3024
50	-3025
8,	-3026
na	-3027
yp	-3028
ele	-3029
mber	-3030
onus	-3031
▁HAS	-3032
▁Know	-3033
▁loan	-3034
elecop	-3035
undred	-3036
▁debts	-3037
▁pages	-3038
▁COURTS	-3039
▁common	-3040
▁estate	-3041
ociation	-3042
▁District	-3043
▁accepted	-3044
▁DOCUMENTS	-3045
▁indenture	-3046
▁consummated	-3047
▁established	-3048
▁Participants	-3049
▁TRANSACTIONS	-3050
▁consolidation	-3051
ck	-3052
ESS	-3053
ULL	-3054
anu	-3055
hes	-3056
sed	-3057
▁9.1	-3058
isted	-3059
velop	-3060
▁best	-3061
▁susp	-3062
MITTED	-3063
utions	-3064
▁Debtor	-3065
▁Design	-3066
▁Office	-3067
▁calcul	-3068
▁franch	-3069
▁insured	-3070
▁mailing	-3071
▁prevail	-3072
▁quarter	-3073
▁Servicer	-3074
▁includes	-3075
▁limiting	-3076
▁Sanctions	-3077
▁requisite	-3078
▁substance	-3079
▁possession	-3080
▁adjustments	-3081
▁supplemented	-3082
ie	-3083
▁§	-3084
BOR	-3085
CED	-3086
CON	-3087
▁ph	-3088
▁Jun	-3089
▁Pat	-3090
▁mor	-3091
ATIVE	-3092
ables	-3093
▁Janu	-3094
▁Time	-3095
▁2016,	-3096
▁CONTE	-3097
▁class	-3098
▁makes	-3099
▁since	-3100
▁convey	-3101
▁dispar	-3102
▁January	-3103
▁Manager	-3104
▁RESPECT	-3105
▁infring	-3106
▁permits	-3107
▁Contract	-3108
▁Priority	-3109
▁Services	-3110
▁investig	-3111
▁programs	-3112
▁transmit	-3113
▁PERMITTED	-3114
▁Separation	-3115
▁conclusive	-3116
▁reimbursed	-3117
▁stockholder	-3118
▁cancellation	-3119
6,	-3120
FF	-3121
▁Ag	-3122
ASED	-3123
LEDG	-3124
____	-3125
hing	-3126
ruct	-3127
urren	-3128
▁Cash	-3129
▁Expo	-3130
▁FULL	-3131
▁item	-3132
aneous	-3133
▁board	-3134
▁hours	-3135
▁might	-3136
▁scope	-3137
atorium	-3138
cumbran	-3139
▁liquid	-3140
▁Sellers	-3141
▁irrepar	-3142
▁nothing	-3143
▁telecop	-3144
▁CONTRACT	-3145
▁preserve	-3146
▁released	-3147
ifications	-3148
▁reflected	-3149
▁contingent	-3150
▁moratorium	-3151
▁previously	-3152
▁references	-3153
▁preparation	-3154
4,	-3155
EST	-3156
uro	-3157
▁(4	-3158
▁AC	-3159
▁SE	-3160
ecti	-3161
▁opp	-3162
▁INDE	-3163
▁four	-3164
▁null	-3165
assess	-3166
veness	-3167
▁LIBOR	-3168
▁gross	-3169
▁shown	-3170
▁injury	-3171
▁listed	-3172
istrable	-3173
▁distrib	-3174
▁minimum	-3175
▁sitting	-3176
▁special	-3177
▁Benefits	-3178
▁asserted	-3179
▁judicial	-3180
▁managers	-3181
assessable	-3182
ectiveness	-3183
▁CONSTRUED	-3184
▁obligated	-3185
▁executives	-3186
▁beneficiary	-3187
▁partnership	-3188
▁participations	-3189
▁20	-3190
▁AB	-3191
ERAL	-3192
line	-3193
olun	-3194
▁Pled	-3195
▁Sale	-3196
▁owns	-3197
rovers	-3198
▁AMEND	-3199
▁liens	-3200
▁mortg	-3201
▁Entity	-3202
▁announ	-3203
▁create	-3204
▁discus	-3205
▁served	-3206
▁Notices	-3207
▁audited	-3208
▁greater	-3209
▁license	-3210
▁Approval	-3211
▁Optionee	-3212
▁recently	-3213
▁Paragraph	-3214
▁approvals	-3215
▁contempor	-3216
▁increased	-3217
▁judgments	-3218
▁penalties	-3219
▁Additional	-3220
▁Consultant	-3221
▁Statements	-3222
▁controvers	-3223
▁administration	-3224
▁responsibility	-3225
▁unconditionally	-3226
MN	-3227
.00	-3228
.04	-3229
.06	-3230
OUT	-3231
TOR	-3232
▁Ma	-3233
foli	-3234
ured	-3235
▁(5)	-3236
claim	-3237
▁COMP	-3238
▁deem	-3239
▁trial	-3240
MPLATED	-3241
ecution	-3242
▁Claims	-3243
▁Series	-3244
▁attemp	-3245
▁finder	-3246
prietary	-3247
▁Equival	-3248
▁premium	-3249
▁working	-3250
▁Exposure	-3251
▁periodic	-3252
▁AMENDMENT	-3253
▁designate	-3254
▁severally	-3255
▁Registrable	-3256
▁independent	-3257
▁CONTEMPLATED	-3258
▁commercially	-3259
.9	-3260
GO	-3261
eu	-3262
ys	-3263
Out	-3264
▁AR	-3265
elve	-3266
▁dom	-3267
▁met	-3268
folio	-3269
iring	-3270
▁None	-3271
▁call	-3272
▁exce	-3273
▁rede	-3274
▁rely	-3275
▁seek	-3276
▁recip	-3277
ruption	-3278
▁defend	-3279
▁guaran	-3280
▁incons	-3281
▁pledge	-3282
▁reduce	-3283
▁twelve	-3284
▁FULLEST	-3285
▁legally	-3286
▁regular	-3287
▁complied	-3288
▁portfolio	-3289
▁recipient	-3290
▁Guarantors	-3291
▁processing	-3292
▁hereinafter	-3293
▁irreparable	-3294
▁understands	-3295
▁Requirements	-3296
▁effectiveness	-3297
▁jurisdictions	-3298
QU	-3299
up	-3300
UDG	-3301
idu	-3302
tim	-3303
▁OB	-3304
ames	-3305
writ	-3306
▁409	-3307
▁Ann	-3308
▁Non	-3309
▁typ	-3310
ISION	-3311
iduci	-3312
iscon	-3313
▁Euro	-3314
▁FORE	-3315
▁draf	-3316
DITION	-3317
▁UNDER	-3318
▁arise	-3319
▁carri	-3320
▁decla	-3321
▁decre	-3322
▁multi	-3323
▁notes	-3324
▁Agents	-3325
▁INDEMN	-3326
▁assist	-3327
▁ending	-3328
▁engage	-3329
▁events	-3330
▁miscon	-3331
▁orders	-3332
▁though	-3333
▁WITHOUT	-3334
▁certain	-3335
▁clauses	-3336
▁holders	-3337
▁undertak	-3338
▁Knowledge	-3339
▁exercising	-3340
▁management	-3341
▁misconduct	-3342
▁negligence	-3343
▁Association	-3344
EO	-3345
▁&	-3346
.05	-3347
ida	-3348
reg	-3349
▁CH	-3350
▁Ow	-3351
airs	-3352
part	-3353
zard	-3354
▁200	-3355
ginal	-3356
unity	-3357
▁COUN	-3358
▁JUDG	-3359
▁Stre	-3360
▁body	-3361
▁debt	-3362
▁inst	-3363
▁tele	-3364
employ	-3365
public	-3366
▁allow	-3367
▁fails	-3368
▁forms	-3369
▁these	-3370
NOWLEDG	-3371
etition	-3372
ticable	-3373
urrency	-3374
▁Intern	-3375
everance	-3376
▁ENFORCE	-3377
▁WHETHER	-3378
▁contrib	-3379
▁deposit	-3380
▁Director	-3381
▁actually	-3382
▁Purchased	-3383
▁continued	-3384
▁trademark	-3385
▁commencing	-3386
▁deductions	-3387
▁Receivables	-3388
▁exclusively	-3389
▁replacement	-3390
.3(	-3391
erv	-3392
pte	-3393
sub	-3394
uty	-3395
TIFI	-3396
chan	-3397
full	-3398
ught	-3399
usal	-3400
▁new	-3401
▁sel	-3402
fully	-3403
inion	-3404
limin	-3405
▁SUIT	-3406
▁alle	-3407
▁perm	-3408
▁said	-3409
▁Right	-3410
▁alloc	-3411
▁forum	-3412
▁impro	-3413
▁poten	-3414
ptember	-3415
▁CLAIMS	-3416
▁Conver	-3417
▁associ	-3418
▁dispos	-3419
▁strict	-3420
▁voting	-3421
▁opinion	-3422
▁pertain	-3423
ordinated	-3424
▁Original	-3425
▁Warrants	-3426
▁accurate	-3427
▁legality	-3428
▁manually	-3429
▁Incentive	-3430
▁Severance	-3431
▁remainder	-3432
▁contemporaneous	-3433
mb	-3434
iti	-3435
▁AT	-3436
▁EV	-3437
.01(	-3438
text	-3439
▁CER	-3440
▁Ext	-3441
▁med	-3442
GOING	-3443
dered	-3444
▁Vice	-3445
▁When	-3446
▁Year	-3447
▁duty	-3448
▁jury	-3449
▁list	-3450
▁rise	-3451
▁wire	-3452
ipient	-3453
respon	-3454
▁about	-3455
▁Commer	-3456
▁borrow	-3457
▁charge	-3458
▁senior	-3459
▁sought	-3460
iduciary	-3461
▁America	-3462
▁CERTIFI	-3463
▁context	-3464
▁funding	-3465
▁holding	-3466
▁refusal	-3467
▁willful	-3468
▁copyrigh	-3469
▁portions	-3470
▁singular	-3471
▁FOREGOING	-3472
▁Operating	-3473
▁Recipient	-3474
▁September	-3475
▁Swingline	-3476
▁correspon	-3477
▁effecting	-3478
▁percentage	-3479
▁cooperation	-3480
▁collectively	-3481
▁counterclaim	-3482
▁documentation	-3483
▁Confidentiality	-3484
IFI	-3485
gor	-3486
▁Al	-3487
▁3.1	-3488
MINIS	-3489
aging	-3490
▁Assu	-3491
▁Disp	-3492
▁Join	-3493
▁June	-3494
▁RSUs	-3495
▁TORT	-3496
viving	-3497
▁Value	-3498
▁treat	-3499
▁compar	-3500
▁gender	-3501
▁intend	-3502
▁longer	-3503
▁plural	-3504
▁relate	-3505
▁things	-3506
▁ADMINIS	-3507
▁affairs	-3508
▁reduced	-3509
▁taxable	-3510
▁dividend	-3511
▁eligible	-3512
▁insurers	-3513
▁mortgage	-3514
▁partners	-3515
▁Indenture	-3516
▁PROVISION	-3517
▁commenced	-3518
▁excluding	-3519
▁acceptance	-3520
▁prepayment	-3521
▁prevailing	-3522
▁capitalized	-3523
▁indemnified	-3524
▁practicable	-3525
▁Appreciation	-3526
In	-3527
OL	-3528
ral	-3529
umu	-3530
▁(6	-3531
▁(9	-3532
▁ce	-3533
ewal	-3534
raud	-3535
▁193	-3536
▁ACK	-3537
▁VII	-3538
▁nat	-3539
feree	-3540
utors	-3541
venue	-3542
▁cumu	-3543
▁data	-3544
RECTLY	-3545
uation	-3546
▁March	-3547
▁sixty	-3548
without	-3549
▁Action	-3550
▁COMPAN	-3551
▁Proper	-3552
▁Street	-3553
▁assert	-3554
▁detail	-3555
▁earned	-3556
▁ensure	-3557
▁format	-3558
▁second	-3559
▁Pledgor	-3560
▁Without	-3561
▁furnish	-3562
▁hundred	-3563
▁natural	-3564
▁substit	-3565
▁Articles	-3566
DITIONALLY	-3567
▁ADMINISTR	-3568
▁attention	-3569
▁reporting	-3570
▁reputable	-3571
▁ACKNOWLEDG	-3572
▁associated	-3573
▁cumulative	-3574
▁transferred	-3575
▁intellectual	-3576
▁qualification	-3577
DU	-3578
gy	-3579
TRI	-3580
iss	-3581
try	-3582
▁3(	-3583
▁MAT	-3584
▁fax	-3585
▁firm	-3586
▁lieu	-3587
▁nine	-3588
▁pros	-3589
ercent	-3590
▁Bonus	-3591
▁Terms	-3592
▁UNCON	-3593
▁begin	-3594
▁names	-3595
▁resol	-3596
▁sheet	-3597
▁DISTRI	-3598
▁Senior	-3599
▁accrue	-3600
▁attach	-3601
▁exists	-3602
▁patent	-3603
▁travel	-3604
fication	-3605
vocation	-3606
▁signing	-3607
▁submits	-3608
▁Accounts	-3609
▁Expenses	-3610
▁JUDGMENT	-3611
▁advisable	-3612
▁encumbran	-3613
▁exercised	-3614
▁favorable	-3615
▁obtaining	-3616
▁potential	-3617
▁Capitalized	-3618
▁undertakings	-3619
▁UNCONDITIONALLY	-3620
5,	-3621
IVE	-3622
PER	-3623
ize	-3624
son	-3625
▁16	-3626
▁8-	-3627
▁Es	-3628
▁PR	-3629
▁ec	-3630
cill	-3631
fere	-3632
ixed	-3633
ming	-3634
omic	-3635
teed	-3636
▁CEO	-3637
▁LEG	-3638
▁LLC	-3639
▁abs	-3640
aches	-3641
dated	-3642
irmed	-3643
▁CONN	-3644
▁Flor	-3645
▁OBLI	-3646
▁done	-3647
CATION	-3648
▁Asset	-3649
▁whose	-3650
cillary	-3651
subject	-3652
▁Annual	-3653
▁Report	-3654
▁Florida	-3655
▁Options	-3656
▁Percent	-3657
▁because	-3658
▁effectu	-3659
ationally	-3660
▁DISTRICT	-3661
▁breaches	-3662
▁monetary	-3663
compliance	-3664
▁Aggregate	-3665
▁fiduciary	-3666
▁intention	-3667
▁objection	-3668
▁Bankruptcy	-3669
▁Properties	-3670
▁comparable	-3671
▁documented	-3672
▁pertaining	-3673
▁Equivalents	-3674
▁accountants	-3675
▁resignation	-3676
▁confirmation	-3677
▁investigations	-3678
2,	-3679
DF	-3680
IR	-3681
ARD	-3682
ada	-3683
ars	-3684
hod	-3685
jor	-3686
▁),	-3687
▁MA	-3688
▁WH	-3689
TING	-3690
crow	-3691
enty	-3692
fact	-3693
▁Sur	-3694
▁den	-3695
▁spl	-3696
▁wee	-3697
PRESS	-3698
arget	-3699
asing	-3700
▁10.1	-3701
▁owed	-3702
▁prim	-3703
ECTION	-3704
▁LEGAL	-3705
▁Title	-3706
▁fraud	-3707
▁prosp	-3708
▁total	-3709
▁assume	-3710
▁method	-3711
▁taking	-3712
encement	-3713
mination	-3714
▁Counsel	-3715
▁EXPRESS	-3716
▁Product	-3717
▁equival	-3718
▁waivers	-3719
▁Benefici	-3720
▁Eligible	-3721
▁Products	-3722
▁location	-3723
▁converted	-3724
▁Prospectus	-3725
▁collateral	-3726
▁Regulations	-3727
▁assignments	-3728
▁controversy	-3729
▁applications	-3730
%)	-3731
PUT	-3732
eng	-3733
ets	-3734
lar	-3735
oic	-3736
yst	-3737
▁IP	-3738
▁IV	-3739
▁Pr	-3740
▁ro	-3741
from	-3742
hile	-3743
ided	-3744
lose	-3745
▁Flo	-3746
▁fif	-3747
FFECT	-3748
estim	-3749
uated	-3750
utory	-3751
▁Anti	-3752
▁Fair	-3753
▁Fore	-3754
▁STAT	-3755
▁Unit	-3756
▁econ	-3757
▁past	-3758
▁well	-3759
▁Coven	-3760
▁Rules	-3761
▁Secre	-3762
▁split	-3763
▁bylaws	-3764
▁confer	-3765
▁contra	-3766
▁invoic	-3767
▁purpor	-3768
ortunity	-3769
▁THEREOF	-3770
▁charter	-3771
▁install	-3772
▁secured	-3773
▁Policies	-3774
▁covering	-3775
▁election	-3776
▁question	-3777
▁EXPRESSLY	-3778
▁Extension	-3779
▁delegated	-3780
▁establish	-3781
▁executors	-3782
▁governing	-3783
▁submitted	-3784
▁authorizes	-3785
▁disability	-3786
▁effectuate	-3787
▁revocation	-3788
▁ACKNOWLEDGES	-3789
▁continuation	-3790
▁administrators	-3791
no	-3792
yn	-3793
tin	-3794
CLUS	-3795
TIVE	-3796
▁Fee	-3797
▁UCC	-3798
lient	-3799
▁BEEN	-3800
▁From	-3801
▁Good	-3802
▁deed	-3803
▁meet	-3804
▁revo	-3805
▁tort	-3806
▁BASED	-3807
▁alter	-3808
▁close	-3809
▁items	-3810
▁volun	-3811
CLUSIVE	-3812
changed	-3813
▁Altern	-3814
▁RIGHTS	-3815
▁multip	-3816
▁relied	-3817
▁Project	-3818
▁omitted	-3819
▁posting	-3820
▁promise	-3821
▁Register	-3822
▁controll	-3823
▁economic	-3824
▁incident	-3825
▁register	-3826
▁selected	-3827
▁Ancillary	-3828
▁Attention	-3829
▁confirmed	-3830
▁contraven	-3831
▁expressed	-3832
▁Commercial	-3833
▁Disability	-3834
▁OBLIGATION	-3835
▁Supplement	-3836
▁imposition	-3837
▁nationally	-3838
▁performing	-3839
▁acquisition	-3840
▁customarily	-3841
▁circumstance	-3842
*]	-3843
.7	-3844
AB	-3845
OUL	-3846
bin	-3847
but	-3848
com	-3849
lac	-3850
oen	-3851
CLUD	-3852
OULD	-3853
fill	-3854
isor	-3855
▁Bro	-3856
▁mer	-3857
AINST	-3858
IFIED	-3859
based	-3860
▁Spec	-3861
▁acco	-3862
▁inqu	-3863
▁self	-3864
▁Sales	-3865
▁annum	-3866
▁calls	-3867
CLUDING	-3868
ulgated	-3869
urchase	-3870
▁DISPUT	-3871
▁causes	-3872
▁lawful	-3873
▁AGAINST	-3874
▁COMPANY	-3875
▁Dispute	-3876
▁conform	-3877
▁dischar	-3878
▁renewed	-3879
orruption	-3880
▁Increase	-3881
▁Licensed	-3882
▁Offering	-3883
▁entities	-3884
▁properly	-3885
▁authorize	-3886
▁operating	-3887
▁statutory	-3888
▁Subscriber	-3889
▁determines	-3890
▁equivalent	-3891
▁privileges	-3892
▁profession	-3893
▁protection	-3894
▁violations	-3895
▁Requirement	-3896
▁consultants	-3897
▁opportunity	-3898
▁promulgated	-3899
▁substantive	-3900
▁Commencement	-3901
▁exchangeable	-3902
▁modifications	-3903
AM	-3904
-14	-3905
.3,	-3906
AND	-3907
acy	-3908
aul	-3909
day	-3910
ich	-3911
raw	-3912
teg	-3913
▁($	-3914
▁5,	-3915
▁US	-3916
▁aw	-3917
heck	-3918
sign	-3919
▁Mas	-3920
ecure	-3921
tical	-3922
urity	-3923
ystem	-3924
▁(10)	-3925
▁Line	-3926
▁Loss	-3927
▁RELE	-3928
▁care	-3929
▁cure	-3930
vested	-3931
▁2016-	-3932
▁Legal	-3933
▁WOULD	-3934
▁occup	-3935
payment	-3936
▁Licens	-3937
▁Master	-3938
▁awards	-3939
▁cannot	-3940
▁combin	-3941
▁dissol	-3942
▁lender	-3943
▁likely	-3944
▁replac	-3945
▁secure	-3946
▁sheets	-3947
▁twenty	-3948
▁Exhibits	-3949
▁believes	-3950
▁provides	-3951
▁rendered	-3952
▁situated	-3953
▁Investors	-3954
▁Mortgaged	-3955
▁Mortgagee	-3956
▁Placement	-3957
▁executing	-3958
▁questions	-3959
▁receiving	-3960
▁concurrent	-3961
▁delivering	-3962
▁franchises	-3963
▁government	-3964
▁terminates	-3965
▁participant	-3966
▁transmitted	-3967
▁Subscription	-3968
▁ADMINISTRATIVE	-3969
ASE	-3970
ROM	-3971
▁Ha	-3972
INGS	-3973
poen	-3974
term	-3975
▁6.1	-3976
▁7.1	-3977
▁FIN	-3978
▁LLP	-3979
▁May	-3980
▁WAY	-3981
▁dur	-3982
▁err	-3983
ength	-3984
sures	-3985
▁5-14	-3986
▁FROM	-3987
▁rata	-3988
enewal	-3989
jected	-3990
▁INTER	-3991
▁every	-3992
▁finan	-3993
▁owner	-3994
lements	-3995
zardous	-3996
▁Custom	-3997
▁endors	-3998
▁Accrued	-3999
▁Debtors	-4000
▁carried	-4001
▁subpoen	-4002
▁American	-4003
▁Creditor	-4004
▁Whenever	-4005
▁confirms	-4006
▁duration	-4007
▁premiums	-4008
▁receives	-4009
▁Financing	-4010
▁formation	-4011
▁negotiate	-4012
▁requiring	-4013
▁similarly	-4014
▁Conversion	-4015
▁Defaulting	-4016
▁Retirement	-4017
▁acknowledg	-4018
▁assessment	-4019
▁collection	-4020
▁commercial	-4021
▁requesting	-4022
▁resolution	-4023
▁subsidiary	-4024
▁throughout	-4025
▁INDEMNIFIED	-4026
▁OBLIGATIONS	-4027
▁prospective	-4028
▁nonassessable	-4029
▁authorizations	-4030
.8	-4031
0,	-4032
IV	-4033
TC	-4034
TH	-4035
UM	-4036
BIT	-4037
Con	-4038
ILL	-4039
ang	-4040
tof	-4041
▁18	-4042
▁36	-4043
▁CA	-4044
▁DI	-4045
▁Wa	-4046
▁us	-4047
hold	-4048
vada	-4049
▁30,	-4050
▁4.2	-4051
▁Ret	-4052
▁ful	-4053
▁obs	-4054
▁suc	-4055
5,000	-4056
iture	-4057
onven	-4058
organ	-4059
party	-4060
vided	-4061
▁Bond	-4062
▁INDI	-4063
▁INTO	-4064
▁WILL	-4065
▁area	-4066
▁doll	-4067
▁type	-4068
cluded	-4069
irable	-4070
jority	-4071
signed	-4072
tofore	-4073
▁Owner	-4074
▁bring	-4075
▁check	-4076
▁exemp	-4077
▁group	-4078
▁integ	-4079
▁proof	-4080
▁relie	-4081
▁secur	-4082
agement	-4083
▁Losses	-4084
▁MATTER	-4085
▁Nevada	-4086
▁grants	-4087
▁ninety	-4088
▁struct	-4089
▁Foreign	-4090
▁Patents	-4091
▁RELATED	-4092
▁anticip	-4093
▁changed	-4094
▁consequ	-4095
▁fulfill	-4096
▁patents	-4097
onvenient	-4098
▁Restated	-4099
▁articles	-4100
▁breached	-4101
▁entering	-4102
▁previous	-4103
▁recovery	-4104
▁resolved	-4105
▁securing	-4106
▁subpoena	-4107
▁desirable	-4108
▁assistance	-4109
▁evidencing	-4110
▁Incremental	-4111
▁disposition	-4112
▁furtherance	-4113
▁commencement	-4114
▁inconsistent	-4115
▁inconvenient	-4116
▁representing	-4117
▁respectively	-4118
AG	-4119
ho	-4120
INC	-4121
ONG	-4122
hic	-4123
rip	-4124
▁(7	-4125
▁II	-4126
▁Mr	-4127
▁SP	-4128
ENCE	-4129
chie	-4130
draw	-4131
ivil	-4132
will	-4133
▁10,	-4134
▁Lim	-4135
▁emb	-4136
appro	-4137
licit	-4138
ribut	-4139
sions	-4140
▁(90)	-4141
▁CONF	-4142
▁INDU	-4143
▁Less	-4144
▁REIT	-4145
▁dili	-4146
▁elap	-4147
▁resc	-4148
00,000	-4149
cement	-4150
olvent	-4151
▁AMONG	-4152
▁achie	-4153
▁incap	-4154
▁joint	-4155
WHETHER	-4156
▁Client	-4157
▁PROPER	-4158
▁access	-4159
▁cancel	-4160
▁expire	-4161
▁indust	-4162
▁mutual	-4163
▁origin	-4164
▁setoff	-4165
cription	-4166
ordingly	-4167
▁Amended	-4168
▁Benefit	-4169
▁affects	-4170
▁alleged	-4171
▁possess	-4172
▁recover	-4173
▁Customer	-4174
▁Licensor	-4175
▁annually	-4176
▁diligent	-4177
▁sections	-4178
▁telecopy	-4179
▁Secretary	-4180
▁affiliate	-4181
▁attempted	-4182
▁forfeited	-4183
▁therefrom	-4184
▁unchanged	-4185
▁Transferee	-4186
▁trademarks	-4187
▁Accordingly	-4188
▁liquidation	-4189
▁proprietary	-4190
▁consistently	-4191
▁Incorporation	-4192
MM	-4193
.4,	-4194
:30	-4195
ICE	-4196
SON	-4197
lin	-4198
ule	-4199
▁$2	-4200
▁$3	-4201
IDED	-4202
JECT	-4203
LICT	-4204
abor	-4205
reas	-4206
▁One	-4207
▁Out	-4208
▁rat	-4209
aired	-4210
ocial	-4211
ufact	-4212
▁Qual	-4213
▁Rule	-4214
▁else	-4215
herein	-4216
ilding	-4217
▁EVENT	-4218
▁Short	-4219
▁facts	-4220
▁remit	-4221
▁weeks	-4222
▁while	-4223
portion	-4224
▁Append	-4225
▁Escrow	-4226
▁PERSON	-4227
▁deduct	-4228
▁orally	-4229
▁prompt	-4230
liminary	-4231
▁Advisor	-4232
▁License	-4233
▁Obligor	-4234
▁Renewal	-4235
▁SUBJECT	-4236
▁country	-4237
▁develop	-4238
▁elapsed	-4239
▁relieve	-4240
▁CONFLICT	-4241
▁declared	-4242
▁delegate	-4243
▁licensed	-4244
▁multiple	-4245
▁restrain	-4246
▁reviewed	-4247
▁schedule	-4248
Corruption	-4249
▁Corporate	-4250
▁Hazardous	-4251
▁interfere	-4252
▁structure	-4253
▁Conditions	-4254
▁Indemnitor	-4255
▁Regulation	-4256
▁calculated	-4257
▁copyrights	-4258
▁diligently	-4259
▁instituted	-4260
▁perfection	-4261
▁restricted	-4262
▁authorities	-4263
▁commissions	-4264
▁disclosures	-4265
▁injunctions	-4266
▁beneficiaries	-4267
1)	-4268
9,	-4269
GH	-4270
SS	-4271
eb	-4272
▁]	-4273
ICH	-4274
UGH	-4275
acc	-4276
hib	-4277
oot	-4278
▁21	-4279
▁5(	-4280
▁ve	-4281
.06(	-4282
cies	-4283
ilit	-4284
lain	-4285
time	-4286
▁100	-4287
▁Ref	-4288
▁did	-4289
▁exa	-4290
▁ine	-4291
▁net	-4292
0,000	-4293
▁bind	-4294
▁pred	-4295
▁sums	-4296
▁Banks	-4297
▁Color	-4298
▁ENTER	-4299
▁Exerc	-4300
▁Treas	-4301
▁aware	-4302
▁entry	-4303
▁vehic	-4304
clusion	-4305
▁Policy	-4306
▁Waiver	-4307
▁arbitr	-4308
▁former	-4309
▁suffer	-4310
▁Program	-4311
▁accepts	-4312
▁adjudic	-4313
▁appoint	-4314
▁expired	-4315
▁interim	-4316
▁primary	-4317
▁trustee	-4318
▁PROVIDED	-4319
▁Payments	-4320
▁Standard	-4321
▁designee	-4322
▁earliest	-4323
▁impaired	-4324
▁improper	-4325
▁industry	-4326
▁priority	-4327
▁resulted	-4328
▁announced	-4329
▁completed	-4330
▁decisions	-4331
▁deposited	-4332
▁Guaranteed	-4333
▁Obligation	-4334
▁attachment	-4335
▁identified	-4336
▁redemption	-4337
▁specifying	-4338
▁succeeding	-4339
▁Beneficiary	-4340
▁Restatement	-4341
▁arbitrators	-4342
▁substantial	-4343
▁indebtedness	-4344
▁installments	-4345
▁professional	-4346
▁corresponding	-4347
2(	-4348
EY	-4349
NEY	-4350
TEN	-4351
TIC	-4352
fin	-4353
iry	-4354
yal	-4355
▁Ro	-4356
▁tr	-4357
FTER	-4358
five	-4359
ging	-4360
lies	-4361
nolo	-4362
olly	-4363
▁3.4	-4364
▁Att	-4365
▁Can	-4366
▁MAN	-4367
▁MUT	-4368
▁Med	-4369
▁PDF	-4370
▁SER	-4371
▁Set	-4372
▁arm	-4373
▁tre	-4374
ESSOR	-4375
rated	-4376
▁VIII	-4377
▁pled	-4378
TORNEY	-4379
urther	-4380
▁Cause	-4381
▁LIMIT	-4382
▁WHICH	-4383
▁accru	-4384
▁admin	-4385
▁chief	-4386
echnolo	-4387
erences	-4388
ibility	-4389
minated	-4390
▁Arrang	-4391
▁perman	-4392
▁status	-4393
▁unused	-4394
partment	-4395
▁Limited	-4396
▁facilit	-4397
▁registr	-4398
▁setting	-4399
▁specify	-4400
▁treated	-4401
▁ATTORNEY	-4402
▁effected	-4403
▁entirety	-4404
▁relative	-4405
▁reserved	-4406
▁beginning	-4407
▁perfected	-4408
▁presently	-4409
▁projected	-4410
▁Assumption	-4411
▁CONNECTION	-4412
▁conveyance	-4413
▁definition	-4414
▁incidental	-4415
▁reputation	-4416
▁contractual	-4417
▁discussions	-4418
▁Subordinated	-4419
▁participating	-4420
ps	-4421
”,	-4422
New	-4423
UAL	-4424
ace	-4425
ari	-4426
nel	-4427
nex	-4428
ton	-4429
tts	-4430
ubl	-4431
ues	-4432
▁4,	-4433
▁He	-4434
▁MD	-4435
▁gu	-4436
ITED	-4437
avor	-4438
fers	-4439
fies	-4440
inqu	-4441
pons	-4442
tees	-4443
tili	-4444
uled	-4445
▁3.2	-4446
▁8.1	-4447
▁FED	-4448
▁Imm	-4449
▁cri	-4450
▁enc	-4451
▁fam	-4452
▁lev	-4453
ulent	-4454
▁(12)	-4455
▁2014	-4456
▁CAUS	-4457
▁Mass	-4458
▁Real	-4459
▁Rent	-4460
▁anti	-4461
▁devo	-4462
▁foot	-4463
▁pass	-4464
▁phys	-4465
▁plus	-4466
▁publ	-4467
achuse	-4468
encies	-4469
ousand	-4470
unless	-4471
▁Final	-4472
▁Inter	-4473
▁forec	-4474
▁invol	-4475
▁level	-4476
▁loans	-4477
▁never	-4478
▁scrip	-4479
▁secre	-4480
▁truth	-4481
CATIONS	-4482
ividual	-4483
tenance	-4484
▁Courts	-4485
▁Lessor	-4486
▁Restri	-4487
▁STATES	-4488
▁Target	-4489
▁UNITED	-4490
hibition	-4491
jections	-4492
▁Covered	-4493
▁DISPUTE	-4494
▁FEDERAL	-4495
▁Further	-4496
▁WAIVERS	-4497
▁approve	-4498
▁collect	-4499
▁inquiry	-4500
▁invoice	-4501
▁relates	-4502
▁replace	-4503
▁vehicle	-4504
achusetts	-4505
▁Currency	-4506
▁ENFORCED	-4507
▁defenses	-4508
▁facility	-4509
▁Employees	-4510
▁omissions	-4511
▁treatment	-4512
▁$1,000,000	-4513
▁Individual	-4514
▁Management	-4515
▁PROVISIONS	-4516
▁Percentage	-4517
▁commitment	-4518
▁containing	-4519
▁fraudulent	-4520
▁retirement	-4521
▁REPRESENTED	-4522
▁financially	-4523
▁prosecution	-4524
▁contribution	-4525
▁encumbrances	-4526
▁subsequently	-4527
▁withholdings	-4528
▁Massachusetts	-4529
3)	-4530
97	-4531
EE	-4532
EK	-4533
RA	-4534
▁’	-4535
bal	-4536
irt	-4537
ony	-4538
pro	-4539
▁90	-4540
▁Ju	-4541
▁Nu	-4542
▁SO	-4543
BITR	-4544
agor	-4545
alth	-4546
fici	-4547
yond	-4548
▁(4)	-4549
▁1.5	-4550
▁III	-4551
▁Min	-4552
▁REG	-4553
▁sue	-4554
ences	-4555
erted	-4556
irtue	-4557
oming	-4558
vider	-4559
▁10.2	-4560
▁SEEK	-4561
▁Sign	-4562
▁deri	-4563
▁pror	-4564
▁read	-4565
50,000	-4566
TERMIN	-4567
appeal	-4568
dollar	-4569
ention	-4570
wealth	-4571
▁2015,	-4572
▁After	-4573
▁deems	-4574
▁disco	-4575
▁found	-4576
▁gives	-4577
▁initi	-4578
▁omits	-4579
▁refin	-4580
▁seven	-4581
▁sound	-4582
heduled	-4583
holding	-4584
vements	-4585
▁ARBITR	-4586
▁EFFECT	-4587
▁SUBMIT	-4588
▁anyone	-4589
▁beyond	-4590
▁defici	-4591
▁devote	-4592
▁social	-4593
▁virtue	-4594
▁Advance	-4595
▁Current	-4596
▁THEREBY	-4597
▁dealing	-4598
▁protest	-4599
▁refrain	-4600
▁settled	-4601
▁support	-4602
ributable	-4603
▁Appendix	-4604
▁Building	-4605
▁DETERMIN	-4606
▁Provider	-4607
▁assuming	-4608
▁offering	-4609
▁products	-4610
▁recorded	-4611
▁retained	-4612
▁unvested	-4613
▁withdraw	-4614
appealable	-4615
▁Contracts	-4616
▁Mortgagor	-4617
▁appointed	-4618
▁diligence	-4619
▁exception	-4620
▁occurring	-4621
▁originals	-4622
▁personnel	-4623
▁transfers	-4624
▁Expiration	-4625
▁discharged	-4626
▁disclosing	-4627
▁Acquisition	-4628
▁accordingly	-4629
▁combination	-4630
▁disparaging	-4631
▁dissolution	-4632
▁effectively	-4633
▁ineffective	-4634
▁prohibition	-4635
▁Commonwealth	-4636
▁Stockholders	-4637
▁noncompliance	-4638
▁determinations	-4639
21	-4640
PA	-4641
UE	-4642
tr	-4643
IGN	-4644
MED	-4645
NER	-4646
ado	-4647
ale	-4648
att	-4649
ero	-4650
ote	-4651
▁17	-4652
▁2,	-4653
▁3,	-4654
▁6,	-4655
▁Au	-4656
▁fe	-4657
▁na	-4658
arks	-4659
dent	-4660
dian	-4661
side	-4662
soli	-4663
teen	-4664
uter	-4665
vity	-4666
year	-4667
▁ABL	-4668
▁ARE	-4669
▁Air	-4670
▁CHO	-4671
▁Glo	-4672
▁SIT	-4673
▁mar	-4674
▁”);	-4675
aring	-4676
attan	-4677
errit	-4678
essen	-4679
iform	-4680
lease	-4681
naire	-4682
notes	-4683
▁(60)	-4684
▁2:00	-4685
▁5:30	-4686
▁Fron	-4687
▁ISSU	-4688
▁July	-4689
▁adop	-4690
▁bill	-4691
▁fund	-4692
erence	-4693
▁Floor	-4694
▁THEIR	-4695
▁Under	-4696
▁WAIVE	-4697
▁aside	-4698
▁chall	-4699
▁error	-4700
▁fixed	-4701
▁named	-4702
angible	-4703
ctioned	-4704
mptions	-4705
omestic	-4706
▁Health	-4707
▁Orders	-4708
▁Return	-4709
▁appeal	-4710
▁defaul	-4711
▁health	-4712
▁limits	-4713
▁respon	-4714
▁sooner	-4715
▁testim	-4716
erritory	-4717
isitions	-4718
▁Contrib	-4719
▁Funding	-4720
▁Princip	-4721
▁SITTING	-4722
▁Solvent	-4723
▁absence	-4724
▁delayed	-4725
▁intends	-4726
▁product	-4727
▁qualify	-4728
▁seeking	-4729
▁several	-4730
▁whereby	-4731
5,000,000	-4732
solidated	-4733
▁Grantors	-4734
▁Managing	-4735
▁National	-4736
▁Released	-4737
▁becoming	-4738
▁carrying	-4739
▁directed	-4740
▁identity	-4741
▁notified	-4742
▁disparage	-4743
▁enforcing	-4744
▁evidenced	-4745
▁footnotes	-4746
▁implement	-4747
▁testimony	-4748
▁Accounting	-4749
▁Designated	-4750
▁Sanctioned	-4751
▁beneficial	-4752
▁heretofore	-4753
▁proportion	-4754
▁superseded	-4755
▁Liabilities	-4756
▁Outstanding	-4757
▁attributable	-4758
▁beneficially	-4759
▁International	-4760
▁registrations	-4761
▁capitalization	-4762
EX	-4763
Ex	-4764
OY	-4765
RI	-4766
SI	-4767
XL	-4768
.08	-4769
ANK	-4770
ARE	-4771
ERE	-4772
amp	-4773
enn	-4774
loc	-4775
▁Tw	-4776
▁et	-4777
▁ke	-4778
RING	-4779
UGHT	-4780
cise	-4781
gust	-4782
ield	-4783
land	-4784
outh	-4785
▁(7)	-4786
▁BRO	-4787
▁Fil	-4788
▁Nor	-4789
▁fun	-4790
▁ina	-4791
▁val	-4792
INCIP	-4793
MPLOY	-4794
TICLE	-4795
empor	-4796
estic	-4797
known	-4798
vival	-4799
▁BANK	-4800
▁MDXL	-4801
▁Manh	-4802
▁Nant	-4803
▁Pool	-4804
▁Ques	-4805
▁Subl	-4806
▁Tenn	-4807
▁priv	-4808
▁shor	-4809
ECTIVE	-4810
ellate	-4811
ponsor	-4812
tarily	-4813
▁2016.	-4814
▁FINAL	-4815
▁Multi	-4816
▁Plans	-4817
▁assur	-4818
▁cease	-4819
▁civil	-4820
▁compr	-4821
▁produ	-4822
▁utili	-4823
ilution	-4824
▁August	-4825
▁EMPLOY	-4826
▁Global	-4827
▁Patent	-4828
▁Pledge	-4829
▁THINGS	-4830
▁afford	-4831
▁expend	-4832
▁leased	-4833
▁lesser	-4834
▁surren	-4835
▁system	-4836
▁tempor	-4837
employer	-4838
▁ARTICLE	-4839
▁BROUGHT	-4840
▁INDUCED	-4841
▁Members	-4842
▁PRINCIP	-4843
▁Revenue	-4844
▁appears	-4845
▁comment	-4846
▁dollars	-4847
▁forward	-4848
▁inadequ	-4849
▁remains	-4850
ructuring	-4851
tionnaire	-4852
▁Colorado	-4853
▁Internal	-4854
▁Maturity	-4855
▁creditor	-4856
▁domestic	-4857
▁identify	-4858
▁invoiced	-4859
▁Approvals	-4860
▁CERTIFIES	-4861
▁Manhattan	-4862
▁Surviving	-4863
▁Tennessee	-4864
▁appellate	-4865
▁permanent	-4866
▁precedent	-4867
▁predecess	-4868
▁purchased	-4869
▁severable	-4870
▁surviving	-4871
▁temporary	-4872
▁underwrit	-4873
orporations	-4874
▁DETERMINED	-4875
▁Eurodollar	-4876
▁assurances	-4877
▁deliveries	-4878
▁extensions	-4879
▁forfeiture	-4880
▁Alternative	-4881
▁Sublandlord	-4882
▁Withholding	-4883
▁assumptions	-4884
▁conditioned	-4885
▁deliverable	-4886
▁undersigned	-4887
▁Consolidated	-4888
▁Questionnaire	-4889
▁Restructuring	-4890
▁certification	-4891
▁REPRESENTATIVE	-4892
Re	-4893
ft	-4894
▁;	-4895
UNT	-4896
ays	-4897
mat	-4898
▁$0	-4899
▁4(	-4900
▁6(	-4901
▁60	-4902
▁7(	-4903
▁VI	-4904
▁ra	-4905
▁“.	-4906
argo	-4907
back	-4908
ells	-4909
ised	-4910
kers	-4911
mple	-4912
such	-4913
▁10-	-4914
▁6.0	-4915
▁DIP	-4916
▁Eng	-4917
▁SAR	-4918
▁Syn	-4919
▁bon	-4920
▁div	-4921
▁ill	-4922
▁mas	-4923
▁ste	-4924
▁ver	-4925
3,500	-4926
REDIT	-4927
otion	-4928
▁APPE	-4929
▁KNOW	-4930
▁MADE	-4931
▁OFAC	-4932
▁risk	-4933
▁summ	-4934
gation	-4935
regard	-4936
▁Annex	-4937
▁CAUSE	-4938
▁Fargo	-4939
▁Funds	-4940
▁South	-4941
▁Wells	-4942
▁accur	-4943
▁cases	-4944
▁deriv	-4945
▁embod	-4946
▁holds	-4947
▁inacc	-4948
▁lists	-4949
▁manif	-4950
raction	-4951
▁5-1401	-4952
▁Broker	-4953
▁Instru	-4954
▁Shared	-4955
▁import	-4956
▁utiliz	-4957
izations	-4958
▁Joinder	-4959
▁Proceed	-4960
▁SUBMITS	-4961
▁adopted	-4962
▁believe	-4963
▁convert	-4964
▁meeting	-4965
▁penalty	-4966
▁prepare	-4967
▁unknown	-4968
▁warrant	-4969
echnology	-4970
▁DIRECTLY	-4971
▁Domestic	-4972
▁INTERPRE	-4973
▁Partners	-4974
▁Treasury	-4975
▁activity	-4976
▁adjusted	-4977
▁captions	-4978
▁computed	-4979
▁designed	-4980
▁inserted	-4981
▁instance	-4982
▁majority	-4983
▁operated	-4984
▁practice	-4985
▁reliance	-4986
▁restated	-4987
▁Employers	-4988
▁Materials	-4989
▁Servicing	-4990
▁Trademark	-4991
▁direction	-4992
▁franchise	-4993
▁incentive	-4994
▁leasehold	-4995
▁therefore	-4996
▁Affiliated	-4997
▁INDIRECTLY	-4998
▁consultant	-4999
▁illegality	-5000
▁prospectus	-5001
▁ENFORCEMENT	-5002
▁Shareholder	-5003
▁irrevocable	-5004
▁presentment	-5005
▁projections	-5006
▁undertaking	-5007
▁constituting	-5008
▁indemnifying	-5009
▁infringement	-5010
▁contributions	-5011
-2	-5012
HS	-5013
PT	-5014
hn	-5015
ob	-5016
ARI	-5017
LAW	-5018
LES	-5019
PON	-5020
RIT	-5021
TIP	-5022
che	-5023
cto	-5024
ino	-5025
ios	-5026
▁1(	-5027
▁50	-5028
▁7,	-5029
CEPT	-5030
ancy	-5031
eria	-5032
idel	-5033
ries	-5034
uity	-5035
▁").	-5036
▁(36	-5037
▁Cop	-5038
▁Del	-5039
▁Key	-5040
▁VOL	-5041
▁cas	-5042
▁enj	-5043
▁lea	-5044
▁sti	-5045
agent	-5046
antom	-5047
apter	-5048
aying	-5049
graph	-5050
ontin	-5051
posit	-5052
reach	-5053
thern	-5054
▁3.01	-5055
▁Coll	-5056
▁DEAC	-5057
▁Octo	-5058
▁Rata	-5059
▁SERV	-5060
▁Sett	-5061
▁Spin	-5062
▁THAN	-5063
▁UPON	-5064
▁deno	-5065
▁even	-5066
▁vote	-5067
RITTEN	-5068
ensate	-5069
ipment	-5070
itures	-5071
vement	-5072
vertis	-5073
within	-5074
▁FORUM	-5075
▁broad	-5076
▁deduc	-5077
cements	-5078
riteria	-5079
▁Avenue	-5080
▁CREDIT	-5081
▁Deferr	-5082
▁MUTUAL	-5083
▁VOLUNT	-5084
▁arises	-5085
▁casual	-5086
▁domain	-5087
▁length	-5088
▁merged	-5089
▁rating	-5090
▁teleph	-5091
▁Deposit	-5092
▁October	-5093
▁Permits	-5094
▁Sponsor	-5095
▁Support	-5096
▁attempt	-5097
▁exceeds	-5098
▁finance	-5099
▁outside	-5100
▁serving	-5101
ideration	-5102
▁Thousand	-5103
▁acquires	-5104
▁advertis	-5105
▁ascribed	-5106
▁believed	-5107
▁contents	-5108
▁delivers	-5109
▁national	-5110
▁physical	-5111
▁prorated	-5112
▁prospect	-5113
ligibility	-5114
▁Covenants	-5115
▁Liability	-5116
▁appearing	-5117
▁discontin	-5118
▁exemption	-5119
▁incapable	-5120
▁maintains	-5121
▁necessity	-5122
▁positions	-5123
▁purchases	-5124
▁purported	-5125
▁scheduled	-5126
▁standards	-5127
▁AGREEMENTS	-5128
▁PRINCIPLES	-5129
▁Repurchase	-5130
▁completion	-5131
▁conformity	-5132
▁generality	-5133
▁invalidate	-5134
▁originally	-5135
▁telecopier	-5136
▁withdrawal	-5137
▁Proprietary	-5138
▁anticipated	-5139
▁controlling	-5140
▁description	-5141
▁administered	-5142
▁availability	-5143
▁notification	-5144
▁Multiemployer	-5145
▁Participation	-5146
▁CERTIFICATIONS	-5147
-3	-5148
4(	-5149
▁0	-5150
ANT	-5151
IOR	-5152
ORY	-5153
URE	-5154
art	-5155
ics	-5156
mon	-5157
ohn	-5158
sts	-5159
ump	-5160
▁")	-5161
▁2(	-5162
▁41	-5163
▁Bi	-5164
▁PL	-5165
▁es	-5166
ABLE	-5167
Base	-5168
aily	-5169
ects	-5170
emor	-5171
imin	-5172
port	-5173
rais	-5174
tics	-5175
uage	-5176
udge	-5177
upon	-5178
▁4.4	-5179
▁Adj	-5180
▁Ari	-5181
▁EQU	-5182
▁GIV	-5183
▁INC	-5184
▁Ill	-5185
▁Pur	-5186
▁Rod	-5187
▁phr	-5188
inois	-5189
lying	-5190
regul	-5191
yalty	-5192
▁2.17	-5193
▁2.2(	-5194
▁2013	-5195
▁CASE	-5196
▁Tran	-5197
▁fire	-5198
▁life	-5199
▁lump	-5200
▁prej	-5201
▁vari	-5202
culine	-5203
hereof	-5204
iation	-5205
icated	-5206
minine	-5207
orough	-5208
ources	-5209
struct	-5210
vation	-5211
▁HEARD	-5212
▁Unith	-5213
▁dimin	-5214
▁disse	-5215
▁exper	-5216
▁heard	-5217
▁reset	-5218
▁using	-5219
issible	-5220
istency	-5221
mpanied	-5222
written	-5223
▁$3,500	-5224
▁Accept	-5225
▁Bylaws	-5226
▁CONTRO	-5227
▁Fiscal	-5228
▁Follow	-5229
▁HEREOF	-5230
▁PERFOR	-5231
▁REGARD	-5232
▁Reason	-5233
▁advice	-5234
▁declar	-5235
▁manage	-5236
▁margin	-5237
▁observ	-5238
▁recent	-5239
▁refund	-5240
▁revoke	-5241
▁tenant	-5242
________	-5243
appropri	-5244
provided	-5245
▁Develop	-5246
▁However	-5247
▁Tranche	-5248
▁allowed	-5249
▁challen	-5250
▁contest	-5251
▁declare	-5252
▁delinqu	-5253
▁drafted	-5254
▁follows	-5255
▁guarant	-5256
▁monthly	-5257
▁profits	-5258
▁purchas	-5259
▁waiving	-5260
▁Advances	-5261
▁Covenant	-5262
▁Dividend	-5263
▁Entities	-5264
▁Exercise	-5265
▁Fronting	-5266
▁Illinois	-5267
▁appoints	-5268
▁casualty	-5269
▁consists	-5270
▁feminine	-5271
▁granting	-5272
▁managing	-5273
▁manifest	-5274
▁obligate	-5275
▁relation	-5276
▁replaced	-5277
▁restrict	-5278
employment	-5279
regulatory	-5280
▁Following	-5281
▁allocated	-5282
▁assignees	-5283
▁committee	-5284
▁decreased	-5285
▁discussed	-5286
▁masculine	-5287
▁quarterly	-5288
▁voluntary	-5289
structuring	-5290
▁CONCLUSIVE	-5291
▁Department	-5292
▁Investment	-5293
▁Registered	-5294
▁Settlement	-5295
▁Unitholder	-5296
▁contravene	-5297
▁convenient	-5298
▁deficiency	-5299
▁integrated	-5300
▁marketable	-5301
▁successive	-5302
▁transferor	-5303
▁ARBITRATION	-5304
▁appointment	-5305
▁eligibility	-5306
▁announcement	-5307
▁invalidating	-5308
▁subordinated	-5309
▁environmental	-5310
▁inconsistency	-5311
▁acknowledgment	-5312
")	-5313
22	-5314
4)	-5315
80	-5316
FG	-5317
**]	-5318
975	-5319
AMS	-5320
IND	-5321
UAR	-5322
big	-5323
den	-5324
edi	-5325
ick	-5326
pay	-5327
rid	-5328
umb	-5329
yan	-5330
▁8,	-5331
▁9,	-5332
▁Be	-5333
▁Mo	-5334
▁TA	-5335
▁pa	-5336
▁wr	-5337
.04(	-5338
HING	-5339
illi	-5340
iror	-5341
lang	-5342
read	-5343
requ	-5344
sual	-5345
tify	-5346
urer	-5347
▁4.3	-5348
▁IHS	-5349
▁NOW	-5350
▁Net	-5351
▁PUR	-5352
▁REC	-5353
▁She	-5354
▁Ste	-5355
▁Two	-5356
▁rev	-5357
▁rul	-5358
▁uns	-5359
AFTER	-5360
ARILY	-5361
INGLY	-5362
LLATE	-5363
THERN	-5364
UARAN	-5365
asion	-5366
email	-5367
minal	-5368
versa	-5369
where	-5370
▁4975	-5371
▁John	-5372
▁able	-5373
▁draw	-5374
▁lang	-5375
▁meas	-5376
▁reti	-5377
▁trib	-5378
▁trig	-5379
▁vice	-5380
ATIONS	-5381
ediary	-5382
▁AGREE	-5383
▁BRING	-5384
▁Class	-5385
▁Costs	-5386
▁Defin	-5387
▁Immed	-5388
▁Maker	-5389
▁bonus	-5390
▁deeds	-5391
▁prove	-5392
▁rates	-5393
▁sells	-5394
▁steps	-5395
atories	-5396
emorand	-5397
▁COUNTY	-5398
▁GIVING	-5399
▁GUARAN	-5400
▁Liquid	-5401
▁Origin	-5402
▁Within	-5403
▁absent	-5404
▁elimin	-5405
▁failed	-5406
▁fourth	-5407
▁insist	-5408
▁mature	-5409
▁offers	-5410
▁offset	-5411
▁useful	-5412
▁NOTHING	-5413
▁Uniform	-5414
▁expires	-5415
▁fifteen	-5416
▁forever	-5417
▁letters	-5418
▁manager	-5419
▁shorter	-5420
▁trading	-5421
▁updated	-5422
Effective	-5423
▁Acquired	-5424
▁Sublease	-5425
▁criminal	-5426
▁defaults	-5427
▁fraction	-5428
▁language	-5429
▁signific	-5430
▁trustees	-5431
▁APPELLATE	-5432
▁Execution	-5433
▁HEREAFTER	-5434
▁INCLUDING	-5435
▁Principal	-5436
▁Specified	-5437
▁Standards	-5438
▁brokerage	-5439
▁locations	-5440
▁preferred	-5441
▁presented	-5442
▁published	-5443
▁telephone	-5444
▁Acceptance	-5445
▁Consenting	-5446
▁allocation	-5447
▁assignable	-5448
▁confidence	-5449
▁contribute	-5450
▁controlled	-5451
▁correspond	-5452
▁facilities	-5453
▁observance	-5454
▁submission	-5455
▁suspension	-5456
▁Contractual	-5457
▁Immediately	-5458
▁VOLUNTARILY	-5459
▁accompanied	-5460
▁communicate	-5461
▁foreclosure	-5462
▁investments	-5463
▁maintenance	-5464
▁represented	-5465
▁signatories	-5466
▁voluntarily	-5467
apitalization	-5468
▁Contribution	-5469
▁adjudication	-5470
▁appreciation	-5471
▁interpreting	-5472
▁presentation	-5473
▁Consideration	-5474
▁distributions	-5475
▁restructuring	-5476
▁identification	-5477
▁Indemnification	-5478
▁Representatives	-5479
))	-5480
11	-5481
86	-5482
99	-5483
SY	-5484
XX	-5485
eo	-5486
)),	-5487
EES	-5488
ESC	-5489
FFI	-5490
SEL	-5491
alo	-5492
ead	-5493
hio	-5494
ked	-5495
rec	-5496
▁$4	-5497
▁("	-5498
▁25	-5499
▁Me	-5500
▁OP	-5501
.05(	-5502
ENUE	-5503
MAND	-5504
Term	-5505
acti	-5506
atch	-5507
axis	-5508
exic	-5509
ines	-5510
more	-5511
osen	-5512
phax	-5513
pril	-5514
pted	-5515
qual	-5516
▁406	-5517
▁6.2	-5518
▁ASS	-5519
▁Car	-5520
▁Col	-5521
▁Ear	-5522
▁GEN	-5523
▁Gre	-5524
▁Jer	-5525
▁PRE	-5526
▁Sou	-5527
▁TRI	-5528
▁USA	-5529
▁Use	-5530
▁Ven	-5531
Based	-5532
VERSY	-5533
adian	-5534
favor	-5535
inded	-5536
istor	-5537
itive	-5538
onoun	-5539
orted	-5540
ridge	-5541
suant	-5542
unded	-5543
yrigh	-5544
▁(15)	-5545
▁1000	-5546
▁2.1(	-5547
▁2.16	-5548
▁2.3,	-5549
▁2017	-5550
▁6.03	-5551
▁9.03	-5552
▁DESC	-5553
▁Disc	-5554
▁Fees	-5555
▁LTIP	-5556
▁Main	-5557
▁Ohio	-5558
▁Work	-5559
▁Your	-5560
▁come	-5561
▁earn	-5562
▁note	-5563
▁stay	-5564
Employ	-5565
LAWARE	-5566
isions	-5567
orrect	-5568
ulated	-5569
▁April	-5570
▁Mexic	-5571
▁VENUE	-5572
▁cured	-5573
▁daily	-5574
▁doing	-5575
▁noted	-5576
▁presu	-5577
▁repay	-5578
▁short	-5579
▁versa	-5580
▁wrong	-5581
500,000	-5582
etitive	-5583
ffected	-5584
itially	-5585
theless	-5586
▁DEMAND	-5587
▁Deason	-5588
▁LESSOR	-5589
▁MANNER	-5590
▁Rodman	-5591
▁county	-5592
▁define	-5593
▁enjoin	-5594
▁owners	-5595
▁redeem	-5596
▁taxing	-5597
▁tribun	-5598
andatory	-5599
ervation	-5600
lemental	-5601
▁ACTIONS	-5602
▁Borough	-5603
▁COUNSEL	-5604
▁Chapter	-5605
▁Counter	-5606
▁Delphax	-5607
▁Hundred	-5608
▁Pension	-5609
▁SERVICE	-5610
▁Venaxis	-5611
▁apprais	-5612
▁closely	-5613
▁decrees	-5614
▁involve	-5615
▁issuing	-5616
▁pledged	-5617
▁pronoun	-5618
▁sending	-5619
▁venture	-5620
emorandum	-5621
exclusive	-5622
hereunder	-5623
statement	-5624
▁Acquiror	-5625
▁Approved	-5626
▁Copyrigh	-5627
▁DELAWARE	-5628
▁Licensee	-5629
▁Southern	-5630
▁accounts	-5631
▁afforded	-5632
▁auditors	-5633
▁comments	-5634
▁criteria	-5635
▁embodies	-5636
▁followed	-5637
▁infringe	-5638
▁issuable	-5639
▁occasion	-5640
▁returned	-5641
▁truthful	-5642
rimination	-5643
▁Indemnity	-5644
▁Territory	-5645
▁incorrect	-5646
▁instances	-5647
▁prospects	-5648
▁recording	-5649
▁rescinded	-5650
▁retention	-5651
▁Authorized	-5652
▁Extensions	-5653
▁Memorandum	-5654
▁adequately	-5655
▁affiliated	-5656
▁inadequate	-5657
▁liquidated	-5658
▁referenced	-5659
▁respecting	-5660
▁substitute	-5661
▁CONTROVERSY	-5662
▁Furthermore	-5663
▁Indemnitees	-5664
▁continuance	-5665
▁declaration	-5666
▁encumbrance	-5667
▁individuals	-5668
▁institution	-5669
▁misappropri	-5670
▁permissible	-5671
▁preliminary	-5672
▁restatement	-5673
▁restraining	-5674
▁shareholder	-5675
▁Indemnifying	-5676
▁instructions	-5677
▁nevertheless	-5678
▁counterclaims	-5679
▁electronically	-5680
02	-5681
DA	-5682
EL	-5683
IF	-5684
IL	-5685
PM	-5686
ok	-5687
pr	-5688
”.	-5689
▁z	-5690
.09	-5691
01(	-5692
AIL	-5693
gen	-5694
ian	-5695
sey	-5696
▁Bo	-5697
▁HC	-5698
▁bu	-5699
▁nd	-5700
▁nt	-5701
▁si	-5702
▁sm	-5703
ALID	-5704
ATOR	-5705
BTOR	-5706
Bios	-5707
Comm	-5708
EXAS	-5709
FORE	-5710
WITH	-5711
atis	-5712
ebru	-5713
gies	-5714
hipp	-5715
lier	-5716
oftw	-5717
onor	-5718
orne	-5719
ouse	-5720
plic	-5721
rodu	-5722
ross	-5723
uent	-5724
▁12,	-5725
▁2.3	-5726
▁5.5	-5727
▁8.2	-5728
▁APA	-5729
▁Bra	-5730
▁Mod	-5731
▁Mut	-5732
▁PFG	-5733
▁SET	-5734
▁bad	-5735
▁pdf	-5736
▁pru	-5737
▁seq	-5738
▁unc	-5739
▁yet	-5740
UNDER	-5741
along	-5742
andon	-5743
atest	-5744
atisf	-5745
ifies	-5746
ighth	-5747
month	-5748
ready	-5749
▁1934	-5750
▁COLL	-5751
▁Cent	-5752
▁Cond	-5753
▁EVID	-5754
▁JAMS	-5755
▁Kalo	-5756
▁Mich	-5757
▁ORAL	-5758
▁PSUs	-5759
▁head	-5760
▁plac	-5761
▁prob	-5762
▁proc	-5763
▁size	-5764
▁spin	-5765
▁stip	-5766
active	-5767
cludes	-5768
hipper	-5769
▁10.02	-5770
▁6.01(	-5771
▁Arius	-5772
▁Febru	-5773
▁North	-5774
▁TEXAS	-5775
▁ambig	-5776
▁estim	-5777
▁image	-5778
▁needs	-5779
▁payee	-5780
▁retro	-5781
▁small	-5782
▁softw	-5783
udgment	-5784
▁Adjust	-5785
▁DEBTOR	-5786
▁EQUITY	-5787
▁Former	-5788
▁Jersey	-5789
▁Leases	-5790
▁Mexico	-5791
▁Paying	-5792
▁Should	-5793
▁boards	-5794
▁elects	-5795
▁enable	-5796
▁family	-5797
▁formed	-5798
▁inform	-5799
▁levies	-5800
▁neuter	-5801
▁pursue	-5802
▁repaid	-5803
▁series	-5804
▁spouse	-5805
▁wholly	-5806
atisfied	-5807
titution	-5808
▁COUNTER	-5809
▁GENERAL	-5810
▁Johnson	-5811
▁Reserve	-5812
▁Shipper	-5813
▁THERETO	-5814
▁WRITTEN	-5815
▁abandon	-5816
▁advisor	-5817
▁already	-5818
▁altered	-5819
▁banking	-5820
▁desires	-5821
▁dispose	-5822
▁entitle	-5823
▁managed	-5824
▁matured	-5825
▁medical	-5826
▁passage	-5827
▁relying	-5828
▁reserve	-5829
▁respond	-5830
▁secrets	-5831
▁solicit	-5832
▁summary	-5833
▁workers	-5834
INCLUDING	-5835
excluding	-5836
lectronic	-5837
mentality	-5838
qualified	-5839
ternative	-5840
▁Arranger	-5841
▁Canadian	-5842
▁Controls	-5843
▁February	-5844
▁KaloBios	-5845
▁Manufact	-5846
▁SECTIONS	-5847
▁deducted	-5848
▁drafting	-5849
▁employer	-5850
▁invoices	-5851
▁manufact	-5852
▁petition	-5853
▁premises	-5854
▁reported	-5855
▁software	-5856
▁suffered	-5857
▁tribunal	-5858
▁violated	-5859
▁Alternate	-5860
▁Applicant	-5861
▁EXCLUSIVE	-5862
▁KNOWINGLY	-5863
▁Operative	-5864
▁Releasees	-5865
▁borrowing	-5866
▁computing	-5867
▁continues	-5868
▁copyright	-5869
▁elsewhere	-5870
▁identical	-5871
▁investors	-5872
▁marketing	-5873
▁occupancy	-5874
▁placement	-5875
▁refinance	-5876
▁Originator	-5877
▁Technology	-5878
▁alteration	-5879
▁assumption	-5880
▁distribute	-5881
▁engagement	-5882
▁repurchase	-5883
▁Restrictive	-5884
▁accelerated	-5885
▁advertising	-5886
▁definitions	-5887
▁determining	-5888
▁distributed	-5889
▁maintaining	-5890
▁recognition	-5891
▁unsatisfied	-5892
▁Designations	-5893
▁Organization	-5894
▁acknowledged	-5895
▁consequences	-5896
▁corporations	-5897
▁disseminated	-5898
▁endorsements	-5899
▁expenditures	-5900
▁facilitating	-5901
▁improvements	-5902
▁misstatement	-5903
▁predecessors	-5904
▁preservation	-5905
▁substitution	-5906
▁JURISDICTIONS	-5907
▁contravention	-5908
▁correspondence	-5909
▁Representations	-5910
▁interpretations	-5911
0-	-5912
3(	-5913
KE	-5914
PO	-5915
ak	-5916
ev	-5917
ha	-5918
xy	-5919
").	-5920
IES	-5921
Tax	-5922
VEN	-5923
aff	-5924
ago	-5925
any	-5926
dis	-5927
iqu	-5928
oup	-5929
pet	-5930
tel	-5931
udi	-5932
unk	-5933
▁).	-5934
▁22	-5935
▁24	-5936
▁42	-5937
▁Bl	-5938
▁CC	-5939
▁ED	-5940
▁FC	-5941
▁Gl	-5942
▁Ho	-5943
▁OW	-5944
▁PB	-5945
▁my	-5946
▁pe	-5947
)(1)	-5948
aile	-5949
ford	-5950
iate	-5951
igan	-5952
itor	-5953
over	-5954
rate	-5955
rick	-5956
rive	-5957
ters	-5958
vied	-5959
▁18,	-5960
▁199	-5961
▁2.4	-5962
▁4.5	-5963
▁5.2	-5964
▁ABR	-5965
▁CHS	-5966
▁Gas	-5967
▁Int	-5968
▁JPM	-5969
▁REF	-5970
▁ROF	-5971
▁SOU	-5972
▁Sch	-5973
▁cli	-5974
▁geo	-5975
▁hig	-5976
▁ple	-5977
CLAIM	-5978
ORDIN	-5979
UNITY	-5980
allas	-5981
aming	-5982
eness	-5983
ening	-5984
gered	-5985
ishes	-5986
issan	-5987
mptly	-5988
round	-5989
tisan	-5990
▁10.6	-5991
▁3.4(	-5992
▁5:00	-5993
▁Attn	-5994
▁COMM	-5995
▁Exce	-5996
▁NOTE	-5997
▁Perf	-5998
▁Post	-5999
▁Prof	-6000
▁Sing	-6001
▁[**]	-6002
▁home	-6003
▁insp	-6004
▁kept	-6005
▁mach	-6006
▁once	-6007
▁sour	-6008
▁tear	-6009
▁wear	-6010
Health	-6011
aximum	-6012
breach	-6013
credit	-6014
itness	-6015
length	-6016
tenant	-6017
tibles	-6018
▁10.04	-6019
▁2016;	-6020
▁3.01(	-6021
▁Avail	-6022
▁Chase	-6023
▁FORTH	-6024
▁Joint	-6025
▁Suite	-6026
▁added	-6027
▁defam	-6028
▁exped	-6029
▁fines	-6030
▁forma	-6031
▁frequ	-6032
▁media	-6033
▁types	-6034
▁units	-6035
include	-6036
oupment	-6037
parture	-6038
related	-6039
▁10.06(	-6040
▁AFFECT	-6041
▁Appeal	-6042
▁CHOICE	-6043
▁Comply	-6044
▁Dallas	-6045
▁Margin	-6046
▁Mutual	-6047
▁Nissan	-6048
▁Practi	-6049
▁RELEAS	-6050
▁Rating	-6051
▁THEORY	-6052
▁debtor	-6053
▁duplic	-6054
▁excise	-6055
▁headqu	-6056
▁levied	-6057
▁perpet	-6058
▁pocket	-6059
▁prepay	-6060
▁prosec	-6061
▁simple	-6062
creditor	-6063
ensurate	-6064
entioned	-6065
▁CONSENT	-6066
▁Success	-6067
▁assumed	-6068
▁charged	-6069
▁clients	-6070
▁grounds	-6071
▁inaccur	-6072
▁knowing	-6073
▁lenders	-6074
▁listing	-6075
▁mutatis	-6076
▁partner	-6077
▁private	-6078
▁prudent	-6079
▁showing	-6080
breaching	-6081
financial	-6082
▁Affected	-6083
▁Assigned	-6084
▁Attorney	-6085
▁Controll	-6086
▁EMPLOYEE	-6087
▁JPMorgan	-6088
▁Michigan	-6089
▁PROPERTY	-6090
▁Promptly	-6091
▁Provided	-6092
▁Pursuant	-6093
▁SOUTHERN	-6094
▁SUBORDIN	-6095
▁advisory	-6096
▁canceled	-6097
▁complies	-6098
▁contempl	-6099
▁credited	-6100
▁disposed	-6101
▁entirely	-6102
▁excepted	-6103
▁geograph	-6104
▁informed	-6105
▁portable	-6106
▁replaces	-6107
▁response	-6108
▁statutes	-6109
▁utilized	-6110
▁Encumbran	-6111
▁Guarantee	-6112
▁HEREUNDER	-6113
▁allowance	-6114
▁collected	-6115
▁defending	-6116
▁guarantee	-6117
▁immediate	-6118
▁initially	-6119
▁rendering	-6120
▁triggered	-6121
▁valuation	-6122
competition	-6123
▁Contractor	-6124
▁Electronic	-6125
▁PROPERTIES	-6126
▁Perfection	-6127
▁Receivable	-6128
▁Transition	-6129
▁consulting	-6130
▁delinquent	-6131
▁derivative	-6132
▁discontinu	-6133
▁faithfully	-6134
▁furnishing	-6135
▁nonpayment	-6136
▁recoupment	-6137
▁separation	-6138
Confidential	-6139
▁Percentages	-6140
▁Proceedings	-6141
▁alternative	-6142
▁deductibles	-6143
▁development	-6144
▁fulfillment	-6145
▁presumption	-6146
▁reservation	-6147
▁retroactive	-6148
▁significant	-6149
▁Acquisitions	-6150
▁unemployment	-6151
▁Intercreditor	-6152
▁controversies	-6153
.”	-6154
0(	-6155
1(	-6156
10	-6157
34	-6158
GC	-6159
Lo	-6160
mn	-6161
zz	-6162
▁-	-6163
.07	-6164
01,	-6165
12)	-6166
ANC	-6167
Gen	-6168
NAL	-6169
PDF	-6170
SEE	-6171
TIT	-6172
ara	-6173
ebs	-6174
fac	-6175
ism	-6176
jec	-6177
jun	-6178
mes	-6179
van	-6180
▁.”	-6181
▁9(	-6182
▁Ci	-6183
▁Wh	-6184
▁sk	-6185
Loan	-6186
URED	-6187
alse	-6188
ders	-6189
empt	-6190
ibus	-6191
iree	-6192
kets	-6193
octr	-6194
ords	-6195
▁1.6	-6196
▁11,	-6197
▁13(	-6198
▁144	-6199
▁180	-6200
▁2.5	-6201
▁412	-6202
▁7.2	-6203
▁ACT	-6204
▁Bri	-6205
▁Cor	-6206
▁Det	-6207
▁FUR	-6208
▁Fif	-6209
▁Hed	-6210
▁INT	-6211
▁Ins	-6212
▁LES	-6213
▁PAY	-6214
▁Red	-6215
▁TAX	-6216
▁[*]	-6217
▁asp	-6218
▁bar	-6219
▁bur	-6220
▁fix	-6221
▁flo	-6222
▁sim	-6223
Board	-6224
ECTED	-6225
STAND	-6226
URITY	-6227
andis	-6228
berty	-6229
ental	-6230
icago	-6231
uston	-6232
▁(45)	-6233
▁162(	-6234
▁2011	-6235
▁4.3(	-6236
▁Braz	-6237
▁DATE	-6238
▁DEAL	-6239
▁DELI	-6240
▁Deed	-6241
▁EXIS	-6242
▁FCPA	-6243
▁Fund	-6244
▁KIND	-6245
▁LIAB	-6246
▁Lead	-6247
▁Make	-6248
▁Minn	-6249
▁Nove	-6250
▁PBGC	-6251
▁Prov	-6252
▁Rich	-6253
▁exha	-6254
▁lack	-6255
▁mark	-6256
▁peer	-6257
▁prin	-6258
▁rent	-6259
▁stop	-6260
▁webs	-6261
ATERAL	-6262
Contin	-6263
achute	-6264
arters	-6265
charge	-6266
mnibus	-6267
verage	-6268
▁1934,	-6269
▁Black	-6270
▁Drive	-6271
▁Early	-6272
▁Fixed	-6273
▁Glenn	-6274
▁Inven	-6275
▁Manna	-6276
▁Prime	-6277
▁Space	-6278
▁Start	-6279
▁These	-6280
▁Total	-6281
▁borne	-6282
▁dealt	-6283
▁doctr	-6284
▁essen	-6285
▁false	-6286
▁lawsu	-6287
▁minim	-6288
▁oppos	-6289
managed	-6290
pective	-6291
phantom	-6292
▁Buyers	-6293
▁Junior	-6294
▁LESSEE	-6295
▁Moving	-6296
▁Supply	-6297
▁Syndic	-6298
▁System	-6299
▁banker	-6300
▁ceases	-6301
▁chosen	-6302
▁comput	-6303
▁examin	-6304
▁impact	-6305
▁insuff	-6306
▁parent	-6307
▁resale	-6308
▁simult	-6309
▁tender	-6310
▁unable	-6311
aneously	-6312
cumbered	-6313
currency	-6314
dilution	-6315
jectives	-6316
together	-6317
▁Chicago	-6318
▁FURTHER	-6319
▁Filings	-6320
▁Finance	-6321
▁Liberty	-6322
▁Maximum	-6323
▁PERFORM	-6324
▁Returns	-6325
▁SECURED	-6326
▁Special	-6327
▁assumes	-6328
▁awarded	-6329
▁compell	-6330
▁contact	-6331
▁describ	-6332
▁effects	-6333
▁illness	-6334
▁lending	-6335
▁machine	-6336
▁offered	-6337
▁phrases	-6338
▁pricing	-6339
▁reverse	-6340
▁suspend	-6341
insurance	-6342
▁Acquiree	-6343
▁EVIDENCE	-6344
▁Headings	-6345
▁INTERNAL	-6346
▁Managers	-6347
▁November	-6348
▁SECURITY	-6349
▁Survival	-6350
▁construe	-6351
▁decrease	-6352
▁describe	-6353
▁doctrine	-6354
▁excluded	-6355
▁goodwill	-6356
▁lawfully	-6357
▁maturity	-6358
▁mutandis	-6359
▁opinions	-6360
▁wrongful	-6361
disclosure	-6362
▁Arrangers	-6363
▁Copyright	-6364
▁Debenture	-6365
▁Qualified	-6366
▁Resources	-6367
▁arbitrate	-6368
▁cancelled	-6369
▁developed	-6370
▁discovery	-6371
▁dividends	-6372
▁equipment	-6373
▁essential	-6374
▁functions	-6375
▁guarantor	-6376
▁knowingly	-6377
▁mandatory	-6378
▁regularly	-6379
▁surrender	-6380
▁COLLATERAL	-6381
▁Noteholder	-6382
▁accelerate	-6383
▁challenges	-6384
▁completely	-6385
▁conclusion	-6386
▁conveniens	-6387
▁exceptions	-6388
▁facilitate	-6389
▁frequently	-6390
▁transferee	-6391
Continuation	-6392
▁Convertible	-6393
▁Development	-6394
▁Independent	-6395
▁achievement	-6396
▁calculation	-6397
▁consequence	-6398
▁contractors	-6399
▁denominated	-6400
▁identifying	-6401
▁inducements	-6402
▁invalidated	-6403
▁restrictive	-6404
▁substituted	-6405
▁supplements	-6406
▁COUNTERCLAIM	-6407
▁SUBORDINATED	-6408
▁commensurate	-6409
▁consultation	-6410
▁headquarters	-6411
▁insufficient	-6412
▁nonappealable	-6413
▁relationships	-6414
▁Authorizations	-6415
▁instrumentality	-6416
..	-6417
18	-6418
6)	-6419
74	-6420
Ad	-6421
De	-6422
En	-6423
OG	-6424
PL	-6425
.6,	-6426
.8,	-6427
00,	-6428
ELF	-6429
ENS	-6430
Who	-6431
anc	-6432
div	-6433
ipp	-6434
ota	-6435
vii	-6436
vog	-6437
▁$7	-6438
▁23	-6439
▁FI	-6440
▁IX	-6441
▁PP	-6442
▁Pa	-6443
▁Sa	-6444
AMAG	-6445
ATES	-6446
CESS	-6447
Comp	-6448
DUCT	-6449
EREN	-6450
IGNS	-6451
IVUS	-6452
Rele	-6453
alys	-6454
bear	-6455
lief	-6456
ling	-6457
miss	-6458
ores	-6459
othe	-6460
rank	-6461
ratz	-6462
this	-6463
uman	-6464
▁15(	-6465
▁15,	-6466
▁27,	-6467
▁3.5	-6468
▁4.9	-6469
▁9.2	-6470
▁Aud	-6471
▁Cre	-6472
▁Cut	-6473
▁Est	-6474
▁IRS	-6475
▁Tit	-6476
▁Vir	-6477
▁air	-6478
▁pun	-6479
▁put	-6480
▁tes	-6481
ITION	-6482
VERED	-6483
Whole	-6484
batch	-6485
esota	-6486
itals	-6487
olver	-6488
parts	-6489
rears	-6490
venth	-6491
▁(100	-6492
▁15.1	-6493
▁5.11	-6494
▁9.12	-6495
▁Acce	-6496
▁Fail	-6497
▁Prot	-6498
▁Quar	-6499
▁RELI	-6500
▁REQU	-6501
▁SUCC	-6502
▁Salt	-6503
▁Ther	-6504
▁West	-6505
▁auth	-6506
▁dest	-6507
▁dies	-6508
▁eval	-6509
▁lead	-6510
▁levy	-6511
▁pays	-6512
▁pref	-6513
▁stor	-6514
▁sure	-6515
ESSORS	-6516
TATION	-6517
applic	-6518
asible	-6519
ferees	-6520
lessee	-6521
quired	-6522
ricken	-6523
urring	-6524
▁$0.00	-6525
▁2.15,	-6526
▁DAMAG	-6527
▁Great	-6528
▁Novog	-6529
▁Payee	-6530
▁Trade	-6531
▁VALID	-6532
▁VIVUS	-6533
▁Yield	-6534
▁abide	-6535
▁along	-6536
▁draft	-6537
▁drawn	-6538
▁early	-6539
▁fifty	-6540
▁forty	-6541
▁leave	-6542
▁marks	-6543
▁parts	-6544
▁perqu	-6545
▁wages	-6546
current	-6547
ensable	-6548
entures	-6549
federal	-6550
vailing	-6551
▁5-1402	-6552
▁BEFORE	-6553
▁Contin	-6554
▁Ground	-6555
▁ITSELF	-6556
▁Relief	-6557
▁Respon	-6558
▁Virgin	-6559
▁attain	-6560
▁encour	-6561
▁guidel	-6562
▁impose	-6563
▁issues	-6564
▁messen	-6565
▁paying	-6566
▁prices	-6567
▁propos	-6568
▁refers	-6569
▁rental	-6570
▁ruling	-6571
▁subdiv	-6572
location	-6573
oluntary	-6574
▁Artisan	-6575
▁Assumed	-6576
▁Country	-6577
▁Failure	-6578
▁Issuers	-6579
▁Lending	-6580
▁Matters	-6581
▁Medical	-6582
▁Omnibus	-6583
▁PROCESS	-6584
▁Quarter	-6585
▁Receipt	-6586
▁arrears	-6587
▁authors	-6588
▁bearing	-6589
▁brokers	-6590
▁cancels	-6591
▁content	-6592
▁exhaust	-6593
▁experts	-6594
▁finally	-6595
▁methods	-6596
▁pledges	-6597
▁procure	-6598
▁produce	-6599
▁promote	-6600
▁proving	-6601
▁ratably	-6602
▁revoked	-6603
▁testify	-6604
aboration	-6605
embership	-6606
facsimile	-6607
paragraph	-6608
▁Claimant	-6609
▁EXISTING	-6610
▁Excluded	-6611
▁Judgment	-6612
▁RELEASED	-6613
▁Supplier	-6614
▁accruing	-6615
▁advances	-6616
▁assessed	-6617
▁bringing	-6618
▁deferred	-6619
▁earnings	-6620
▁executes	-6621
▁greatest	-6622
▁official	-6623
▁optionee	-6624
▁probable	-6625
▁stricken	-6626
▁violates	-6627
▁writings	-6628
▁CONFLICTS	-6629
▁Discharge	-6630
▁Minnesota	-6631
▁Novogratz	-6632
▁acquiring	-6633
▁conferred	-6634
▁departure	-6635
▁disregard	-6636
▁exclusion	-6637
▁increases	-6638
▁incurring	-6639
▁messenger	-6640
▁ordinance	-6641
▁prosecute	-6642
▁purchaser	-6643
▁residence	-6644
hereinafter	-6645
▁$5,000,000	-6646
▁Condensate	-6647
▁Equivalent	-6648
▁Government	-6649
▁Greatbatch	-6650
▁References	-6651
▁SUCCESSORS	-6652
▁Signatures	-6653
▁Warranties	-6654
▁accurately	-6655
▁describing	-6656
▁expression	-6657
▁guarantees	-6658
▁incurrence	-6659
▁objectives	-6660
▁Authorities	-6661
▁Designation	-6662
▁INTERPRETED	-6663
▁Noteholders	-6664
▁Preliminary	-6665
▁consecutive	-6666
▁constituent	-6667
▁examination	-6668
▁indemnities	-6669
▁necessarily	-6670
▁subsections	-6671
▁continuously	-6672
▁participated	-6673
▁supplemental	-6674
▁Contributions	-6675
▁investigative	-6676
▁proportionate	-6677
▁reimbursements	-6678
):	-6679
-8	-6680
15	-6681
20	-6682
26	-6683
35	-6684
48	-6685
5%	-6686
66	-6687
79	-6688
AD	-6689
AP	-6690
GE	-6691
IC	-6692
JC	-6693
Ow	-6694
SK	-6695
SP	-6696
SR	-6697
TW	-6698
lf	-6699
mi	-6700
yl	-6701
ARR	-6702
EEN	-6703
HIP	-6704
III	-6705
KES	-6706
OVE	-6707
cos	-6708
elf	-6709
exp	-6710
how	-6711
ina	-6712
ins	-6713
kly	-6714
lay	-6715
leg	-6716
ley	-6717
rep	-6718
tax	-6719
wap	-6720
xim	-6721
▁1.	-6722
▁29	-6723
▁Ab	-6724
▁DT	-6725
▁El	-6726
▁NY	-6727
▁Ph	-6728
▁SA	-6729
▁SN	-6730
▁Vo	-6731
▁af	-6732
▁la	-6733
Coll	-6734
IENT	-6735
MMIT	-6736
TTER	-6737
ails	-6738
cuse	-6739
date	-6740
echn	-6741
ersu	-6742
ices	-6743
iche	-6744
ites	-6745
lish	-6746
mark	-6747
mmod	-6748
ones	-6749
orti	-6750
race	-6751
vect	-6752
▁"),	-6753
▁(9)	-6754
▁101	-6755
▁13,	-6756
▁16,	-6757
▁26,	-6758
▁404	-6759
▁430	-6760
▁BUT	-6761
▁Bay	-6762
▁CEC	-6763
▁DEF	-6764
▁Ded	-6765
▁Eas	-6766
▁GSK	-6767
▁IMP	-6768
▁Imp	-6769
▁Mon	-6770
▁RCA	-6771
▁TJC	-6772
▁Top	-6773
▁aid	-6774
▁cho	-6775
▁job	-6776
▁lod	-6777
AINED	-6778
ERIAL	-6779
FFILI	-6780
ILITY	-6781
ITHER	-6782
Owned	-6783
TWEEN	-6784
abled	-6785
acted	-6786
alloc	-6787
anced	-6788
erred	-6789
forfe	-6790
honor	-6791
house	-6792
ittee	-6793
named	-6794
orism	-6795
oston	-6796
otech	-6797
payer	-6798
stain	-6799
udice	-6800
ultim	-6801
using	-6802
ylvan	-6803
▁(20)	-6804
▁1933	-6805
▁3.05	-6806
▁3.11	-6807
▁4.4,	-6808
▁401(	-6809
▁Back	-6810
▁Body	-6811
▁Conf	-6812
▁EXEC	-6813
▁List	-6814
▁Olin	-6815
▁PART	-6816
▁PLAN	-6817
▁Penn	-6818
▁book	-6819
▁ende	-6820
▁hard	-6821
▁poin	-6822
▁rati	-6823
▁unli	-6824
▁view	-6825
ERENCE	-6826
agents	-6827
eviden	-6828
legium	-6829
ostage	-6830
vectra	-6831
▁9.05(	-6832
▁AFTER	-6833
▁APPLY	-6834
▁Cases	-6835
▁Execu	-6836
▁Green	-6837
▁Labor	-6838
▁Ordin	-6839
▁PRIOR	-6840
▁PURPO	-6841
▁REMED	-6842
▁Rents	-6843
▁TAXES	-6844
▁Versu	-6845
▁bills	-6846
▁comes	-6847
▁corre	-6848
▁extra	-6849
▁holid	-6850
▁signs	-6851
▁stamp	-6852
▁table	-6853
▁techn	-6854
Initial	-6855
JECTION	-6856
eration	-6857
ichever	-6858
oresaid	-6859
renewal	-6860
veloper	-6861
▁(100%)	-6862
▁AFFILI	-6863
▁Attach	-6864
▁Boston	-6865
▁COMMIT	-6866
▁COURSE	-6867
▁EXCEPT	-6868
▁Eighth	-6869
▁ISSUER	-6870
▁Interm	-6871
▁LETTER	-6872
▁Public	-6873
▁Saving	-6874
▁Single	-6875
▁SpinCo	-6876
▁Unused	-6877
▁Wholly	-6878
▁advise	-6879
▁analys	-6880
▁conjun	-6881
▁decide	-6882
▁dental	-6883
▁dollar	-6884
▁errors	-6885
▁escrow	-6886
▁famili	-6887
▁hazard	-6888
▁incurs	-6889
▁indefe	-6890
▁laying	-6891
▁motion	-6892
▁rather	-6893
▁sender	-6894
▁strate	-6895
▁supply	-6896
▁timing	-6897
Employee	-6898
bearance	-6899
includes	-6900
material	-6901
▁Actions	-6902
▁BETWEEN	-6903
▁Charter	-6904
▁Continu	-6905
▁Defined	-6906
▁Eastern	-6907
▁Houston	-6908
▁MATTERS	-6909
▁Pledged	-6910
▁Premium	-6911
▁Royalty	-6912
▁Selling	-6913
▁Substit	-6914
▁bonuses	-6915
▁causing	-6916
▁clearly	-6917
▁comprom	-6918
▁deleted	-6919
▁equally	-6920
▁impairs	-6921
▁obtains	-6922
▁offsets	-6923
▁quality	-6924
▁realloc	-6925
▁reprodu	-6926
▁sharing	-6927
▁storage	-6928
▁sustain	-6929
▁unfavor	-6930
mentioned	-6931
▁Deferral	-6932
▁Deferred	-6933
▁MATERIAL	-6934
▁Majority	-6935
▁Nuvectra	-6936
▁Relevant	-6937
▁________	-6938
▁accommod	-6939
▁accuracy	-6940
▁approxim	-6941
▁controls	-6942
▁customer	-6943
▁dilution	-6944
▁diminish	-6945
▁dishonor	-6946
▁disputed	-6947
▁endeavor	-6948
▁measures	-6949
▁notifies	-6950
▁recourse	-6951
▁saleable	-6952
▁supplied	-6953
▁tangible	-6954
▁wherever	-6955
Collateral	-6956
evidencing	-6957
ordination	-6958
prevailing	-6959
regardless	-6960
▁CONNECTED	-6961
▁Collegium	-6962
▁Creations	-6963
▁Creditors	-6964
▁Deferrals	-6965
▁GUARANTOR	-6966
▁Parachute	-6967
▁REFERENCE	-6968
▁Releasing	-6969
▁abandoned	-6970
▁aforesaid	-6971
▁ambiguity	-6972
▁assigning	-6973
▁breaching	-6974
▁commences	-6975
▁compelled	-6976
▁complying	-6977
▁eliminate	-6978
▁forthwith	-6979
▁generated	-6980
▁inclusive	-6981
▁institute	-6982
▁possesses	-6983
▁prejudice	-6984
▁primarily	-6985
▁principle	-6986
▁procedure	-6987
▁processes	-6988
▁protected	-6989
▁receivers	-6990
▁selection	-6991
▁suspended	-6992
▁transport	-6993
▁whichever	-6994
forfeitable	-6995
resentation	-6996
▁AFFILIATES	-6997
▁Blackridge	-6998
▁COMMITMENT	-6999
▁Controlled	-7000
▁Executives	-7001
▁Exercising	-7002
▁LIMITATION	-7003
▁NantHealth	-7004
▁Respondent	-7005
▁Substances	-7006
▁comprising	-7007
▁discovered	-7008
▁guaranteed	-7009
▁guidelines	-7010
▁incapacity	-7011
▁inducement	-7012
▁instructed	-7013
▁paragraphs	-7014
▁reflecting	-7015
▁responding	-7016
▁satisfying	-7017
▁successful	-7018
▁truthfully	-7019
confidential	-7020
▁Investments	-7021
▁PERFORMANCE	-7022
▁association	-7023
▁competitive	-7024
▁conjunction	-7025
▁contracting	-7026
▁designation	-7027
▁disregarded	-7028
▁endorsement	-7029
▁intentional	-7030
▁settlements	-7031
▁subdivision	-7032
▁unfavorable	-7033
▁Counterparts	-7034
▁Distribution	-7035
▁Eurocurrency	-7036
▁Intermediary	-7037
▁Shareholders	-7038
▁acquisitions	-7039
▁concurrently	-7040
▁sufficiently	-7041
▁unreasonable	-7042
▁Collaboration	-7043
▁appropriately	-7044
▁retroactively	-7045
▁INTERPRETATION	-7046
▁Organizational	-7047
▁qualifications	-7048
03	-7049
2-	-7050
33	-7051
41	-7052
As	-7053
CO	-7054
IM	-7055
MS	-7056
NC	-7057
PH	-7058
PY	-7059
RU	-7060
Sh	-7061
av	-7062
jp	-7063
ov	-7064
pe	-7065
td	-7066
ww	-7067
▁*	-7068
.7,	-7069
AID	-7070
BED	-7071
DRE	-7072
Fin	-7073
GAG	-7074
How	-7075
ILI	-7076
MIS	-7077
ORS	-7078
PAR	-7079
PTC	-7080
UTE	-7081
ade	-7082
amb	-7083
eor	-7084
ery	-7085
gia	-7086
ife	-7087
irc	-7088
iso	-7089
lex	-7090
lla	-7091
orn	-7092
rag	-7093
ret	-7094
six	-7095
vis	-7096
wer	-7097
▁(8	-7098
▁31	-7099
▁45	-7100
▁5%	-7101
▁CB	-7102
▁DO	-7103
▁FL	-7104
▁Lu	-7105
▁Ms	-7106
▁PO	-7107
▁SH	-7108
▁TW	-7109
▁],	-7110
▁§1	-7111
▁“$	-7112
)(2)	-7113
.00)	-7114
.02(	-7115
Back	-7116
ECTS	-7117
HALF	-7118
INCO	-7119
PENS	-7120
PTCY	-7121
Plan	-7122
SION	-7123
airm	-7124
aler	-7125
amis	-7126
anta	-7127
apeu	-7128
enth	-7129
hest	-7130
ique	-7131
mbre	-7132
mpow	-7133
ored	-7134
orks	-7135
rand	-7136
reek	-7137
ultz	-7138
viii	-7139
zman	-7140
▁($1	-7141
▁(6)	-7142
▁10%	-7143
▁280	-7144
▁3.6	-7145
▁365	-7146
▁4.8	-7147
▁8.6	-7148
▁Ash	-7149
▁Bar	-7150
▁Bid	-7151
▁CLI	-7152
▁EDC	-7153
▁Eag	-7154
▁Fam	-7155
▁Gat	-7156
▁IMM	-7157
▁LOC	-7158
▁Ltd	-7159
▁Mic	-7160
▁Nuo	-7161
▁PPG	-7162
▁RRA	-7163
▁SNH	-7164
▁TER	-7165
▁Tag	-7166
▁Wat	-7167
▁Wil	-7168
▁ado	-7169
▁ali	-7170
▁buy	-7171
▁hos	-7172
▁hyp	-7173
▁nar	-7174
▁nea	-7175
DRESS	-7176
RIBED	-7177
ailey	-7178
andby	-7179
asors	-7180
class	-7181
contr	-7182
dress	-7183
ervic	-7184
gress	-7185
icile	-7186
icult	-7187
ifier	-7188
ighty	-7189
itely	-7190
iting	-7191
lined	-7192
olina	-7193
othec	-7194
rents	-7195
third	-7196
tures	-7197
valon	-7198
yndic	-7199
▁$.00	-7200
▁100%	-7201
▁11.1	-7202
▁11.2	-7203
▁12.1	-7204
▁2019	-7205
▁360-	-7206
▁5.1(	-7207
▁6.01	-7208
▁6.1(	-7209
▁7.03	-7210
▁COPY	-7211
▁Circ	-7212
▁Five	-7213
▁Four	-7214
▁Geor	-7215
▁Gold	-7216
▁Hold	-7217
▁Kind	-7218
▁MORT	-7219
▁Mary	-7220
▁Park	-7221
▁ROFR	-7222
▁Ryan	-7223
▁SARs	-7224
▁SPEC	-7225
▁clar	-7226
▁ener	-7227
▁lend	-7228
▁many	-7229
▁near	-7230
▁puts	-7231
▁quot	-7232
▁remo	-7233
▁role	-7234
▁save	-7235
▁sick	-7236
▁vary	-7237
Lender	-7238
PENSES	-7239
RUPTCY	-7240
airman	-7241
ampunk	-7242
atever	-7243
ceived	-7244
either	-7245
elfare	-7246
ensing	-7247
gatory	-7248
illiam	-7249
illion	-7250
lation	-7251
missed	-7252
sylvan	-7253
zation	-7254
▁(212)	-7255
▁2.16,	-7256
▁Bonds	-7257
▁Civil	-7258
▁Creek	-7259
▁Goals	-7260
▁Goods	-7261
▁Hedge	-7262
▁Human	-7263
▁INCON	-7264
▁Impro	-7265
▁Resol	-7266
▁While	-7267
▁accum	-7268
▁acted	-7269
▁afore	-7270
▁alone	-7271
▁bonds	-7272
▁divul	-7273
▁empow	-7274
▁flood	-7275
▁grace	-7276
▁judge	-7277
▁labor	-7278
▁merge	-7279
▁nomin	-7280
▁reaff	-7281
▁skill	-7282
▁subro	-7283
▁takes	-7284
▁theft	-7285
▁ultim	-7286
▁umbre	-7287
▁writs	-7288
Closing	-7289
Company	-7290
mington	-7291
missory	-7292
solicit	-7293
vention	-7294
▁Adamis	-7295
▁Avalon	-7296
▁BEHALF	-7297
▁Bailey	-7298
▁Brazil	-7299
▁CLIENT	-7300
▁Family	-7301
▁Filing	-7302
▁HEREIN	-7303
▁Histor	-7304
▁INDUCE	-7305
▁Leased	-7306
▁Morgan	-7307
▁Proced	-7308
▁SPINCO	-7309
▁Voting	-7310
▁addres	-7311
▁assure	-7312
▁burden	-7313
▁called	-7314
▁denied	-7315
▁experi	-7316
▁freely	-7317
▁leases	-7318
▁mental	-7319
▁misrep	-7320
▁placed	-7321
▁points	-7322
▁prepar	-7323
▁remitt	-7324
▁remove	-7325
▁repair	-7326
▁repeal	-7327
▁states	-7328
▁stipul	-7329
▁target	-7330
apeutics	-7331
essation	-7332
finitely	-7333
irmation	-7334
irmative	-7335
ordinary	-7336
sylvania	-7337
▁ADDRESS	-7338
▁ASSIGNS	-7339
▁Acceler	-7340
▁CONSTIT	-7341
▁Central	-7342
▁DAMAGES	-7343
▁Georgia	-7344
▁Interim	-7345
▁Kindred	-7346
▁LIMITED	-7347
▁MORTGAG	-7348
▁Profits	-7349
▁RELEASE	-7350
▁Savings	-7351
▁Schultz	-7352
▁William	-7353
▁acquies	-7354
▁capable	-7355
▁carrier	-7356
▁defects	-7357
▁entails	-7358
▁exclude	-7359
▁himself	-7360
▁imaging	-7361
▁instead	-7362
▁leasing	-7363
▁margins	-7364
▁nearest	-7365
▁observe	-7366
▁opening	-7367
▁proviso	-7368
▁publish	-7369
▁ratable	-7370
▁reasons	-7371
▁royalty	-7372
▁severed	-7373
▁tenants	-7374
▁website	-7375
0,000,000	-7376
ATIONSHIP	-7377
Financial	-7378
criptions	-7379
operative	-7380
pendently	-7381
▁$500,000	-7382
▁Adjusted	-7383
▁CONSENTS	-7384
▁Carolina	-7385
▁Designee	-7386
▁EXPENSES	-7387
▁Floating	-7388
▁INDIRECT	-7389
▁Maryland	-7390
▁Operator	-7391
▁Ordinary	-7392
▁Premiums	-7393
▁Releases	-7394
▁Saltzman	-7395
▁Taxpayer	-7396
▁VALIDITY	-7397
▁Virginia	-7398
▁accruals	-7399
▁achieved	-7400
▁agreeing	-7401
▁amending	-7402
▁currency	-7403
▁detailed	-7404
▁domicile	-7405
▁encumber	-7406
▁families	-7407
▁fixtures	-7408
▁guaranty	-7409
▁holidays	-7410
▁hypothec	-7411
▁instruct	-7412
▁integral	-7413
▁negative	-7414
▁presence	-7415
▁printing	-7416
▁punitive	-7417
▁pursuing	-7418
▁recitals	-7419
▁reducing	-7420
▁remedied	-7421
▁renewals	-7422
▁strictly	-7423
▁telegram	-7424
▁transact	-7425
▁umbrella	-7426
▁whatever	-7427
50,000,000	-7428
respective	-7429
▁DESCRIBED	-7430
▁Dedicated	-7431
▁Developer	-7432
▁Mediation	-7433
▁OBJECTION	-7434
▁Practices	-7435
▁Reference	-7436
▁Releasors	-7437
▁Steampunk	-7438
▁Subservic	-7439
▁Subtenant	-7440
▁accepting	-7441
▁carefully	-7442
▁customers	-7443
▁difficult	-7444
▁dismissed	-7445
▁duplicate	-7446
▁exceeding	-7447
▁fulfilled	-7448
▁initiated	-7449
▁insolvent	-7450
▁mortgages	-7451
▁proposals	-7452
▁quotation	-7453
▁suspected	-7454
▁uncertain	-7455
▁unrelated	-7456
performance	-7457
▁10,000,000	-7458
▁Attachment	-7459
▁BANKRUPTCY	-7460
▁Consulting	-7461
▁Depositary	-7462
▁Inventions	-7463
▁Resolution	-7464
▁Subsection	-7465
▁Wilmington	-7466
▁absolutely	-7467
▁accountant	-7468
▁authorship	-7469
▁compensate	-7470
▁contractor	-7471
▁defamatory	-7472
▁department	-7473
▁discharges	-7474
▁fractional	-7475
▁immaterial	-7476
▁opposition	-7477
▁prescribed	-7478
▁principals	-7479
▁promissory	-7480
▁rescission	-7481
▁suspending	-7482
solicitation	-7483
▁Contributed	-7484
▁Institution	-7485
▁Instruments	-7486
▁Maintenance	-7487
▁compensable	-7488
▁constituted	-7489
▁conveyances	-7490
▁installment	-7491
▁materiality	-7492
▁originating	-7493
▁protections	-7494
▁surrendered	-7495
▁theretofore	-7496
▁transferees	-7497
▁Certificates	-7498
▁Encumbrances	-7499
▁Improvements	-7500
▁Pennsylvania	-7501
▁RELATIONSHIP	-7502
▁Therapeutics	-7503
▁Transmission	-7504
▁arbitrations	-7505
▁communicated	-7506
▁establishing	-7507
▁indefinitely	-7508
▁nonexclusive	-7509
▁participants	-7510
▁subparagraph	-7511
▁subscription	-7512
▁underwriters	-7513
▁underwriting	-7514
▁Determination	-7515
▁Documentation	-7516
▁Participating	-7517
▁extraordinary	-7518
▁independently	-7519
▁international	-7520
▁aforementioned	-7521
▁discontinuance	-7522
▁discrimination	-7523
▁transportation	-7524
.(	-7525
06	-7526
51	-7527
59	-7528
90	-7529
Ac	-7530
Ar	-7531
BC	-7532
BT	-7533
EF	-7534
NO	-7535
OD	-7536
Sc	-7537
TE	-7538
VP	-7539
bl	-7540
bo	-7541
†]	-7542
▁–	-7543
"),	-7544
.4(	-7545
.9(	-7546
001	-7547
ARY	-7548
BAL	-7549
Car	-7550
IFY	-7551
JUN	-7552
OGN	-7553
ORP	-7554
OUN	-7555
Off	-7556
RIP	-7557
SEN	-7558
STS	-7559
ULT	-7560
alm	-7561
ave	-7562
cra	-7563
eas	-7564
ext	-7565
fax	-7566
gic	-7567
jpm	-7568
let	-7569
mer	-7570
rin	-7571
ses	-7572
tah	-7573
tie	-7574
tif	-7575
uto	-7576
zmi	-7577
▁(.	-7578
▁38	-7579
▁8(	-7580
▁CL	-7581
▁CM	-7582
▁JV	-7583
▁Kh	-7584
▁MO	-7585
▁Op	-7586
▁Pe	-7587
▁bi	-7588
▁ii	-7589
▁mo	-7590
▁”.	-7591
▁†]	-7592
.03(	-7593
AGRA	-7594
ATCA	-7595
CHAR	-7596
EVER	-7597
IRED	-7598
ULES	-7599
VING	-7600
achs	-7601
acks	-7602
anel	-7603
anna	-7604
cien	-7605
erox	-7606
idav	-7607
iggy	-7608
insu	-7609
ipts	-7610
oint	-7611
oney	-7612
oody	-7613
orld	-7614
pean	-7615
plan	-7616
pute	-7617
seen	-7618
stop	-7619
umer	-7620
wich	-7621
▁$1,	-7622
▁(1/	-7623
▁(18	-7624
▁1.1	-7625
▁10(	-7626
▁11.	-7627
▁12(	-7628
▁14,	-7629
▁19,	-7630
▁196	-7631
▁197	-7632
▁3.3	-7633
▁5.3	-7634
▁5.7	-7635
▁7.3	-7636
▁8.3	-7637
▁9.3	-7638
▁AAP	-7639
▁Age	-7640
▁BCA	-7641
▁BRE	-7642
▁EFF	-7643
▁ISO	-7644
▁NON	-7645
▁OTC	-7646
▁OWN	-7647
▁RSU	-7648
▁SEN	-7649
▁SSI	-7650
▁Sue	-7651
▁Tri	-7652
▁WHO	-7653
▁War	-7654
▁YUM	-7655
▁etc	-7656
▁imm	-7657
▁our	-7658
▁quo	-7659
▁spe	-7660
▁unu	-7661
Carlo	-7662
IDENT	-7663
ORPOR	-7664
OUNTS	-7665
acent	-7666
andem	-7667
andid	-7668
anned	-7669
attie	-7670
cence	-7671
craft	-7672
dable	-7673
ering	-7674
erved	-7675
exerc	-7676
gment	-7677
herer	-7678
ially	-7679
ician	-7680
iries	-7681
lains	-7682
loses	-7683
ringe	-7684
stead	-7685
ulton	-7686
utral	-7687
▁(21)	-7688
▁1001	-7689
▁11.3	-7690
▁2.01	-7691
▁2007	-7692
▁2012	-7693
▁3(3)	-7694
▁5.01	-7695
▁6.05	-7696
▁6.10	-7697
▁7.01	-7698
▁7.1(	-7699
▁9.01	-7700
▁9.10	-7701
▁Auto	-7702
▁Both	-7703
▁Care	-7704
▁Cyan	-7705
▁FEES	-7706
▁Firm	-7707
▁Free	-7708
▁Full	-7709
▁MAIL	-7710
▁Pier	-7711
▁Pros	-7712
▁REVO	-7713
▁Same	-7714
▁Shen	-7715
▁Unen	-7716
▁Utah	-7717
▁WARR	-7718
▁Wall	-7719
▁bona	-7720
▁cond	-7721
▁deny	-7722
▁diss	-7723
▁ends	-7724
▁ever	-7725
▁fide	-7726
▁guid	-7727
▁hear	-7728
▁numb	-7729
▁some	-7730
▁swap	-7731
▁zero	-7732
AGRAPH	-7733
Paying	-7734
Series	-7735
arazmi	-7736
cienti	-7737
exempt	-7738
gement	-7739
hereby	-7740
imburs	-7741
ivable	-7742
laints	-7743
▁(365)	-7744
▁2013,	-7745
▁2017,	-7746
▁ABOVE	-7747
▁ARISE	-7748
▁ASSER	-7749
▁Begin	-7750
▁Eagle	-7751
▁FATCA	-7752
▁Frank	-7753
▁Hanna	-7754
▁INJUN	-7755
▁MAKES	-7756
▁Moody	-7757
▁Overs	-7758
▁PLEDG	-7759
▁PRSUs	-7760
▁RULES	-7761
▁Refin	-7762
▁Sachs	-7763
▁Shelf	-7764
▁Signs	-7765
▁Since	-7766
▁Synta	-7767
▁TRIED	-7768
▁Times	-7769
▁Until	-7770
▁Xerox	-7771
▁alien	-7772
▁capac	-7773
▁conta	-7774
▁equit	-7775
▁fifth	-7776
▁goals	-7777
▁inven	-7778
▁kinds	-7779
▁legis	-7780
▁major	-7781
▁proxy	-7782
▁remun	-7783
▁royal	-7784
▁space	-7785
▁usage	-7786
▁usual	-7787
ILITIES	-7788
RIPTION	-7789
Release	-7790
VENIENT	-7791
ception	-7792
easance	-7793
emption	-7794
idelity	-7795
insured	-7796
license	-7797
licitly	-7798
matured	-7799
postage	-7800
tholder	-7801
▁2016-2	-7802
▁Adient	-7803
▁CHOSEN	-7804
▁Canada	-7805
▁DIRECT	-7806
▁Events	-7807
▁Excess	-7808
▁Excise	-7809
▁Excuse	-7810
▁Fulton	-7811
▁INTERE	-7812
▁Income	-7813
▁Indian	-7814
▁Micron	-7815
▁Number	-7816
▁Papers	-7817
▁Plains	-7818
▁Postal	-7819
▁RECOGN	-7820
▁SENIOR	-7821
▁Steipp	-7822
▁Surren	-7823
▁attend	-7824
▁became	-7825
▁ceased	-7826
▁compel	-7827
▁compon	-7828
▁defect	-7829
▁embody	-7830
▁enters	-7831
▁expect	-7832
▁expert	-7833
▁explan	-7834
▁fringe	-7835
▁handle	-7836
▁hereon	-7837
▁interm	-7838
▁legend	-7839
▁levels	-7840
▁monies	-7841
▁naming	-7842
▁nearly	-7843
▁needed	-7844
▁refuse	-7845
▁secret	-7846
▁settle	-7847
▁source	-7848
▁surety	-7849
▁survey	-7850
ECTIVELY	-7851
contract	-7852
employee	-7853
erential	-7854
errorism	-7855
istering	-7856
jpmorgan	-7857
quidated	-7858
undering	-7859
▁Amounts	-7860
▁Balance	-7861
▁Beattie	-7862
▁CONDUCT	-7863
▁DEBTORS	-7864
▁DISCHAR	-7865
▁DeCarlo	-7866
▁Disburs	-7867
▁Express	-7868
▁Goldman	-7869
▁Instead	-7870
▁Joining	-7871
▁LOCATED	-7872
▁Markets	-7873
▁PURPOSE	-7874
▁Quality	-7875
▁Shentel	-7876
▁Venture	-7877
▁advised	-7878
▁applies	-7879
▁claimed	-7880
▁condemn	-7881
▁connote	-7882
▁discuss	-7883
▁divulge	-7884
▁drawing	-7885
▁elected	-7886
▁enterpr	-7887
▁entries	-7888
▁factual	-7889
▁finding	-7890
▁forfeit	-7891
▁genders	-7892
▁hazards	-7893
▁highest	-7894
▁lawsuit	-7895
▁neutral	-7896
▁numbers	-7897
▁ongoing	-7898
▁parents	-7899
▁pension	-7900
▁purport	-7901
▁relinqu	-7902
▁retains	-7903
▁retired	-7904
▁revised	-7905
▁rounded	-7906
▁solvent	-7907
▁systems	-7908
▁unexerc	-7909
▁unusual	-7910
▁welfare	-7911
▁witness	-7912
ORPORATED	-7913
recurring	-7914
uthorized	-7915
▁$100,000	-7916
▁Aircraft	-7917
▁Backstop	-7918
▁COMMENCE	-7919
▁Chairman	-7920
▁Circular	-7921
▁Commerce	-7922
▁DEALINGS	-7923
▁DISPUTES	-7924
▁Disputes	-7925
▁European	-7926
▁GUARANTY	-7927
▁Gatherer	-7928
▁IMMUNITY	-7929
▁INDEMNIT	-7930
▁Kharazmi	-7931
▁Proceeds	-7932
▁adjacent	-7933
▁alleging	-7934
▁borrowed	-7935
▁claiming	-7936
▁combined	-7937
▁computer	-7938
▁deposits	-7939
▁disabled	-7940
▁disposal	-7941
▁landlord	-7942
▁minimize	-7943
▁pronouns	-7944
▁receipts	-7945
▁receiver	-7946
▁reformed	-7947
▁resident	-7948
▁retiring	-7949
▁survival	-7950
Disclosure	-7951
applicable	-7952
paragement	-7953
restricted	-7954
▁Available	-7955
▁BORROWERS	-7956
▁Beginning	-7957
▁COMPANIES	-7958
▁CONTRACTS	-7959
▁Cyanotech	-7960
▁DELIVERED	-7961
▁Facsimile	-7962
▁Governing	-7963
▁Governors	-7964
▁Greenwich	-7965
▁Oversight	-7966
▁PARAGRAPH	-7967
▁RELEASING	-7968
▁Sublessee	-7969
▁Successor	-7970
▁Surrender	-7971
▁Treasurer	-7972
▁Underwrit	-7973
▁addressee	-7974
▁admission	-7975
▁agreeable	-7976
▁allowable	-7977
▁appraisal	-7978
▁asserting	-7979
▁cessation	-7980
▁community	-7981
▁condensed	-7982
▁connected	-7983
▁consented	-7984
▁designees	-7985
▁elections	-7986
▁estimates	-7987
▁extending	-7988
▁inability	-7989
▁infringes	-7990
▁inquiries	-7991
▁interview	-7992
▁licensing	-7993
▁publicity	-7994
▁referring	-7995
▁royalties	-7996
▁technical	-7997
▁territory	-7998
▁thereupon	-7999
▁threatens	-8000
▁undertake	-8001
▁whereupon	-8002
Termination	-8003
▁$3,000,000	-8004
▁Continuous	-8005
▁Exceptions	-8006
▁Intangible	-8007
▁Paragraphs	-8008
▁Protection	-8009
▁RESPECTIVE	-8010
▁Redemption	-8011
▁UNDERSTAND	-8012
▁anticipate	-8013
▁capacities	-8014
▁charitable	-8015
▁compromise	-8016
▁conflicted	-8017
▁consisting	-8018
▁delegation	-8019
▁diminution	-8020
▁dissimilar	-8021
▁explicitly	-8022
▁impairment	-8023
▁inaccuracy	-8024
▁inaccurate	-8025
▁inventions	-8026
▁ordinances	-8027
▁preventing	-8028
▁procedural	-8029
▁production	-8030
▁promptness	-8031
▁purchasers	-8032
▁purchasing	-8033
▁purporting	-8034
▁qualifying	-8035
▁relocation	-8036
▁remittance	-8037
▁underlying	-8038
▁undertaken	-8039
▁$10,000,000	-8040
▁APPLICATION	-8041
▁DESCRIPTION	-8042
▁LIABILITIES	-8043
▁Prosecution	-8044
▁RECOGNITION	-8045
▁Syndication	-8046
▁Transferred	-8047
▁Undersigned	-8048
▁accumulated	-8049
▁adjudicated	-8050
▁affirmative	-8051
▁authorizing	-8052
▁competition	-8053
▁derivatives	-8054
▁differences	-8055
▁entitlement	-8056
▁implemented	-8057
▁incremental	-8058
▁inoperative	-8059
▁involuntary	-8060
▁legislation	-8061
▁possibility	-8062
▁predecessor	-8063
▁subrogation	-8064
▁terminating	-8065
▁Additionally	-8066
▁Corporations	-8067
▁INCONVENIENT	-8068
▁INCORPORATED	-8069
▁Manufacturer	-8070
▁Modification	-8071
▁Restrictions	-8072
▁Unencumbered	-8073
▁acquiescence	-8074
▁computations	-8075
▁condemnation	-8076
▁consummating	-8077
▁dispositions	-8078
▁entitlements	-8079
▁geographical	-8080
▁incorporates	-8081
▁intermediary	-8082
▁irrespective	-8083
▁receivership	-8084
▁remuneration	-8085
▁terminations	-8086
▁transferable	-8087
▁unauthorized	-8088
▁unliquidated	-8089
▁Transmissions	-8090
▁Warrantholder	-8091
▁accommodation	-8092
▁applicability	-8093
▁approximately	-8094
▁contamination	-8095
▁contingencies	-8096
▁discretionary	-8097
▁infringements	-8098
▁manufacturing	-8099
▁subscriptions	-8100
▁unconditional	-8101
▁Discrimination	-8102
▁acknowledgments	-8103
-5	-8104
-9	-8105
19	-8106
28	-8107
58	-8108
77	-8109
8(	-8110
94	-8111
GS	-8112
HI	-8113
LT	-8114
Le	-8115
ML	-8116
OS	-8117
Om	-8118
SC	-8119
SM	-8120
au	-8121
za	-8122
’,	-8123
▁#	-8124
)).	-8125
02,	-8126
5%)	-8127
ADO	-8128
ANO	-8129
ATT	-8130
DSI	-8131
Dis	-8132
ERI	-8133
FIC	-8134
GAR	-8135
GLI	-8136
Jun	-8137
LOR	-8138
Med	-8139
NTC	-8140
OLD	-8141
Par	-8142
SEC	-8143
Sub	-8144
TIN	-8145
__,	-8146
bot	-8147
ciz	-8148
dle	-8149
iCo	-8150
lum	-8151
nor	-8152
phy	-8153
rea	-8154
ris	-8155
rix	-8156
roy	-8157
rum	-8158
tem	-8159
tes	-8160
wee	-8161
zed	-8162
zon	-8163
▁".	-8164
▁$6	-8165
▁26	-8166
▁37	-8167
▁5.	-8168
▁7.	-8169
▁9.	-8170
▁IF	-8171
▁PE	-8172
▁UK	-8173
▁ti	-8174
▁§4	-8175
)(3)	-8176
)(4)	-8177
.02,	-8178
ATIS	-8179
CCUR	-8180
EMED	-8181
FFIC	-8182
GLIG	-8183
Gene	-8184
HATT	-8185
IPAA	-8186
OUGH	-8187
PORT	-8188
TAIN	-8189
TERN	-8190
TIAL	-8191
VERE	-8192
aled	-8193
blow	-8194
cash	-8195
come	-8196
comm	-8197
coun	-8198
deli	-8199
gers	-8200
gger	-8201
gree	-8202
hens	-8203
hoto	-8204
ison	-8205
itch	-8206
kins	-8207
long	-8208
lumn	-8209
oses	-8210
perv	-8211
serv	-8212
tish	-8213
uron	-8214
ware	-8215
▁$2,	-8216
▁$4,	-8217
▁(12	-8218
▁(42	-8219
▁1.3	-8220
▁12-	-8221
▁17(	-8222
▁17,	-8223
▁22,	-8224
▁24,	-8225
▁302	-8226
▁366	-8227
▁4.7	-8228
▁5.4	-8229
▁5.6	-8230
▁6.3	-8231
▁606	-8232
▁7.5	-8233
▁API	-8234
▁Bio	-8235
▁CFI	-8236
▁Cod	-8237
▁DAY	-8238
▁DEC	-8239
▁DTC	-8240
▁Dan	-8241
▁EGS	-8242
▁HAD	-8243
▁HCM	-8244
▁Jur	-8245
▁Los	-8246
▁Mer	-8247
▁Mid	-8248
▁Mur	-8249
▁NDA	-8250
▁NOR	-8251
▁PLC	-8252
▁PPA	-8253
▁PSP	-8254
▁Sim	-8255
▁Six	-8256
▁Una	-8257
▁die	-8258
▁dig	-8259
▁ess	-8260
▁how	-8261
▁san	-8262
▁sug	-8263
▁tit	-8264
▁usu	-8265
▁www	-8266
7,500	-8267
ANOFI	-8268
ERICA	-8269
OTHER	-8270
Omics	-8271
SUANT	-8272
acies	-8273
alker	-8274
amber	-8275
amble	-8276
ather	-8277
ators	-8278
earch	-8279
echan	-8280
efore	-8281
geles	-8282
istle	-8283
lands	-8284
lause	-8285
liers	-8286
odian	-8287
oking	-8288
onsin	-8289
prior	-8290
psiCo	-8291
quare	-8292
rable	-8293
ticiz	-8294
umbia	-8295
ville	-8296
▁$0.6	-8297
▁1:00	-8298
▁2.15	-8299
▁2.19	-8300
▁2021	-8301
▁3.04	-8302
▁4.1(	-8303
▁4.10	-8304
▁4.11	-8305
▁4.4.	-8306
▁4.8,	-8307
▁6.07	-8308
▁9.1(	-8309
▁Area	-8310
▁BDSI	-8311
▁Bloc	-8312
▁Brow	-8313
▁CBRE	-8314
▁Corp	-8315
▁Data	-8316
▁Drag	-8317
▁Ecos	-8318
▁Eval	-8319
▁FACT	-8320
▁Head	-8321
▁Item	-8322
▁Lake	-8323
▁Meas	-8324
▁Mezz	-8325
▁Most	-8326
▁OMIS	-8327
▁Port	-8328
▁Road	-8329
▁SERP	-8330
▁Stat	-8331
▁THIR	-8332
▁Tier	-8333
▁Wisc	-8334
▁back	-8335
▁cent	-8336
▁cust	-8337
▁exon	-8338
▁face	-8339
▁fall	-8340
▁fine	-8341
▁gain	-8342
▁hour	-8343
▁inhe	-8344
▁medi	-8345
▁mere	-8346
▁poli	-8347
▁send	-8348
▁surv	-8349
▁text	-8350
▁tion	-8351
▁turn	-8352
▁unil	-8353
▁unto	-8354
▁uses	-8355
▁valu	-8356
▁vend	-8357
Borrow	-8358
EMENTS	-8359
HATTAN	-8360
Indemn	-8361
LORADO	-8362
antage	-8363
assign	-8364
dealer	-8365
direct	-8366
ectrum	-8367
gatees	-8368
idents	-8369
isites	-8370
ivided	-8371
lessor	-8372
mplish	-8373
ociate	-8374
rehens	-8375
return	-8376
servco	-8377
stated	-8378
sulted	-8379
ternal	-8380
thirds	-8381
tibank	-8382
utable	-8383
velope	-8384
weekly	-8385
▁10.01	-8386
▁10:00	-8387
▁11:00	-8388
▁12:00	-8389
▁1933,	-8390
▁2008,	-8391
▁2010,	-8392
▁2014.	-8393
▁2015.	-8394
▁Advis	-8395
▁Amend	-8396
▁Audit	-8397
▁Barcl	-8398
▁Bayer	-8399
▁CONSI	-8400
▁Condu	-8401
▁Estim	-8402
▁Fifth	-8403
▁Flood	-8404
▁Funda	-8405
▁HIPAA	-8406
▁Huron	-8407
▁INTEN	-8408
▁Issue	-8409
▁Leave	-8410
▁Marks	-8411
▁OCCUR	-8412
▁PROHI	-8413
▁Photo	-8414
▁Proxy	-8415
▁Santa	-8416
▁Score	-8417
▁Secur	-8418
▁Sheet	-8419
▁Three	-8420
▁Titan	-8421
▁Venue	-8422
▁Where	-8423
▁compe	-8424
▁enlar	-8425
▁fault	-8426
▁faxed	-8427
▁litig	-8428
▁meals	-8429
▁numer	-8430
▁panel	-8431
▁plead	-8432
▁thing	-8433
▁water	-8434
▁works	-8435
50,000,	-8436
IDENTAL	-8437
VEREIGN	-8438
account	-8439
changes	-8440
hibited	-8441
individ	-8442
ishment	-8443
olvency	-8444
ributor	-8445
urement	-8446
▁$0.001	-8447
▁11.06(	-8448
▁Breach	-8449
▁CONTIN	-8450
▁Center	-8451
▁DEEMED	-8452
▁EITHER	-8453
▁Either	-8454
▁Engine	-8455
▁Estate	-8456
▁Forest	-8457
▁Fourth	-8458
▁Gaming	-8459
▁Greens	-8460
▁Holdco	-8461
▁Middle	-8462
▁Murphy	-8463
▁NEGLIG	-8464
▁NuGene	-8465
▁OPPORT	-8466
▁RELIEF	-8467
▁Recent	-8468
▁SANOFI	-8469
▁Strand	-8470
▁Wolver	-8471
▁active	-8472
▁aspect	-8473
▁audits	-8474
▁belong	-8475
▁better	-8476
▁branch	-8477
▁column	-8478
▁delete	-8479
▁desire	-8480
▁device	-8481
▁differ	-8482
▁dispro	-8483
▁distin	-8484
▁eighty	-8485
▁energy	-8486
▁engine	-8487
▁enroll	-8488
▁exempt	-8489
▁higher	-8490
▁histor	-8491
▁induce	-8492
▁issuer	-8493
▁living	-8494
▁lodged	-8495
▁marked	-8496
▁narrow	-8497
▁object	-8498
▁payout	-8499
▁phrase	-8500
▁profit	-8501
▁quoted	-8502
▁tandem	-8503
▁theory	-8504
▁titles	-8505
▁traded	-8506
▁unique	-8507
▁update	-8508
Acquired	-8509
Delivery	-8510
TIONALLY	-8511
approved	-8512
aterally	-8513
favoring	-8514
portable	-8515
▁$3,500;	-8516
▁AMERICA	-8517
▁AMOUNTS	-8518
▁Address	-8519
▁Angeles	-8520
▁Annexes	-8521
▁Ashford	-8522
▁BOROUGH	-8523
▁British	-8524
▁Chamber	-8525
▁Constit	-8526
▁Contemp	-8527
▁Enforce	-8528
▁Finally	-8529
▁ISSUING	-8530
▁PepsiCo	-8531
▁Pledgee	-8532
▁Richard	-8533
▁Segment	-8534
▁Seventh	-8535
▁THEREIN	-8536
▁Trigger	-8537
▁achieve	-8538
▁affidav	-8539
▁appeals	-8540
▁aspects	-8541
▁average	-8542
▁clarity	-8543
▁creates	-8544
▁decided	-8545
▁denomin	-8546
▁descent	-8547
▁designs	-8548
▁destroy	-8549
▁divided	-8550
▁drafter	-8551
▁employs	-8552
▁essence	-8553
▁finders	-8554
▁foresee	-8555
▁hearing	-8556
▁inspect	-8557
▁joinder	-8558
▁leading	-8559
▁nominee	-8560
▁refuses	-8561
▁removal	-8562
▁repurch	-8563
▁rescind	-8564
▁resolve	-8565
▁rulings	-8566
▁selling	-8567
▁sources	-8568
▁stating	-8569
▁uncured	-8570
▁uniform	-8571
▁usually	-8572
▁various	-8573
▁workout	-8574
isdiction	-8575
itization	-8576
rehensive	-8577
▁Agencies	-8578
▁COLORADO	-8579
▁Citibank	-8580
▁Columbia	-8581
▁Consents	-8582
▁Enservco	-8583
▁Licenses	-8584
▁Maintain	-8585
▁Modifier	-8586
▁OMISSION	-8587
▁Obligors	-8588
▁PURSUANT	-8589
▁Proposed	-8590
▁RELEASES	-8591
▁REQUIRED	-8592
▁Republic	-8593
▁Spectrum	-8594
▁Trustees	-8595
▁advisers	-8596
▁agencies	-8597
▁applying	-8598
▁carriers	-8599
▁clearing	-8600
▁criticiz	-8601
▁disappro	-8602
▁discount	-8603
▁enclosed	-8604
▁engaging	-8605
▁envelope	-8606
▁external	-8607
▁favoring	-8608
▁function	-8609
▁guidance	-8610
▁indicate	-8611
▁inherent	-8612
▁involves	-8613
▁legatees	-8614
▁outlined	-8615
▁provider	-8616
▁realized	-8617
▁refunded	-8618
▁remedial	-8619
▁subjects	-8620
▁thousand	-8621
00,000,000	-8622
Employment	-8623
corruption	-8624
fringement	-8625
▁ATTORNEYS	-8626
▁Americans	-8627
▁Associate	-8628
▁Committed	-8629
▁Disclosed	-8630
▁EFFECTIVE	-8631
▁Estimated	-8632
▁Exception	-8633
▁Exchanges	-8634
▁FinanceCo	-8635
▁Leaseback	-8636
▁Liquidity	-8637
▁MANHATTAN	-8638
▁NantOmics	-8639
▁Ownership	-8640
▁PERFORMED	-8641
▁Reporting	-8642
▁SOVEREIGN	-8643
▁Sublessor	-8644
▁Therefore	-8645
▁Unaudited	-8646
▁Wisconsin	-8647
▁Wolverine	-8648
▁advantage	-8649
▁allocable	-8650
▁assurance	-8651
▁certifies	-8652
▁completes	-8653
▁consulted	-8654
▁contacted	-8655
▁correctly	-8656
▁coverages	-8657
▁defaulted	-8658
▁dissolved	-8659
▁equitably	-8660
▁excessive	-8661
▁exchanged	-8662
▁exercises	-8663
▁expedited	-8664
▁mediation	-8665
▁notifying	-8666
▁perpetual	-8667
▁physician	-8668
▁political	-8669
▁preempted	-8670
▁preparing	-8671
▁recovered	-8672
▁releasing	-8673
▁sentences	-8674
▁separable	-8675
▁specifies	-8676
▁suppliers	-8677
echnologies	-8678
▁50,000,000	-8679
▁ARBITRATOR	-8680
▁Amendments	-8681
▁Arbitrable	-8682
▁Collection	-8683
▁Engagement	-8684
▁Evaluation	-8685
▁INCIDENTAL	-8686
▁INDUCEMENT	-8687
▁Instrument	-8688
▁Principles	-8689
▁Provisions	-8690
▁Qualifying	-8691
▁Regulatory	-8692
▁Subaccount	-8693
▁Substitute	-8694
▁Successive	-8695
▁Trademarks	-8696
▁accomplish	-8697
▁allegation	-8698
▁annualized	-8699
▁attainment	-8700
▁committees	-8701
▁deductible	-8702
▁designates	-8703
▁difference	-8704
▁directions	-8705
▁disparages	-8706
▁disruption	-8707
▁enterprise	-8708
▁experience	-8709
▁geographic	-8710
▁guaranties	-8711
▁guarantors	-8712
▁inadequacy	-8713
▁increasing	-8714
▁indicating	-8715
▁inspection	-8716
▁intangible	-8717
▁membership	-8718
▁objections	-8719
▁obligating	-8720
▁perpetuity	-8721
▁recordable	-8722
▁separately	-8723
▁stipulated	-8724
▁sublicense	-8725
▁supporting	-8726
▁technology	-8727
▁ultimately	-8728
Compensation	-8729
individually	-8730
▁Assignments	-8731
▁Competitive	-8732
▁Contributor	-8733
▁Forbearance	-8734
▁Fundamental	-8735
▁OPPORTUNITY	-8736
▁Subservicer	-8737
▁attachments	-8738
▁calculating	-8739
▁conditional	-8740
▁disfavoring	-8741
▁enlargement	-8742
▁explanation	-8743
▁indemnifies	-8744
▁perquisites	-8745
▁preferences	-8746
▁publication	-8747
▁referencing	-8748
▁specificity	-8749
▁subcontract	-8750
▁unexercised	-8751
▁Availability	-8752
▁CONSTRUCTION	-8753
▁Codification	-8754
▁Confirmation	-8755
▁Contemplated	-8756
▁Disabilities	-8757
▁Disbursement	-8758
▁Disqualified	-8759
▁Jurisdiction	-8760
▁Transferring	-8761
▁Unrestricted	-8762
▁deficiencies	-8763
▁disbursement	-8764
▁inaccuracies	-8765
▁indefeasible	-8766
▁interruption	-8767
▁nonbreaching	-8768
▁simultaneous	-8769
▁transmitting	-8770
▁verification	-8771
Administrative	-8772
▁ADMINISTRATOR	-8773
▁INTENTIONALLY	-8774
▁administering	-8775
▁announcements	-8776
▁contemplating	-8777
▁disproportion	-8778
▁distributable	-8779
▁establishment	-8780
▁organizations	-8781
▁prospectively	-8782
▁telefacsimile	-8783
▁Reorganization	-8784
▁Securitization	-8785
▁nonforfeitable	-8786
▁simultaneously	-8787
▁REPRESENTATIONS	-8788
▁Securityholders	-8789
-4	-8790
-7	-8791
.)	-8792
0%	-8793
14	-8794
23	-8795
27	-8796
57	-8797
67	-8798
98	-8799
AV	-8800
Al	-8801
FY	-8802
GP	-8803
HM	-8804
MA	-8805
MB	-8806
NT	-8807
OT	-8808
SO	-8809
UY	-8810
VI	-8811
XR	-8812
],	-8813
].	-8814
][	-8815
ba	-8816
ky	-8817
oy	-8818
sh	-8819
va	-8820
wa	-8821
▁Z	-8822
)(1	-8823
-1(	-8824
-30	-8825
.12	-8826
.2,	-8827
.9,	-8828
100	-8829
30,	-8830
999	-8831
:59	-8832
ADI	-8833
App	-8834
CEO	-8835
EQU	-8836
ERY	-8837
FOL	-8838
GES	-8839
IME	-8840
Mat	-8841
OUR	-8842
PLS	-8843
SNC	-8844
TAL	-8845
THC	-8846
Ten	-8847
UDI	-8848
ULE	-8849
USA	-8850
ans	-8851
arb	-8852
arn	-8853
bre	-8854
cal	-8855
cel	-8856
cen	-8857
cep	-8858
del	-8859
era	-8860
etw	-8861
fil	-8862
gar	-8863
gov	-8864
imp	-8865
inc	-8866
irk	-8867
olo	-8868
own	-8869
oxt	-8870
pol	-8871
rac	-8872
ray	-8873
rug	-8874
sec	-8875
she	-8876
tix	-8877
two	-8878
urg	-8879
ush	-8880
▁,”	-8881
▁1/	-8882
▁33	-8883
▁34	-8884
▁77	-8885
▁BB	-8886
▁CD	-8887
▁Cl	-8888
▁DU	-8889
▁Di	-8890
▁FF	-8891
▁Gu	-8892
▁Ir	-8893
▁ME	-8894
▁NJ	-8895
▁RS	-8896
▁XI	-8897
▁]†	-8898
▁er	-8899
▁ll	-8900
.103	-8901
50%)	-8902
ANEO	-8903
ANTS	-8904
ARML	-8905
ATSO	-8906
COLL	-8907
CTED	-8908
Drit	-8909
GAAP	-8910
Gran	-8911
ISTE	-8912
KING	-8913
Life	-8914
MPOR	-8915
ONTH	-8916
RELE	-8917
SEQU	-8918
Tech	-8919
UTED	-8920
UYER	-8921
VERY	-8922
WING	-8923
XXXX	-8924
aith	-8925
apid	-8926
ario	-8927
aris	-8928
aser	-8929
asic	-8930
avid	-8931
bank	-8932
bery	-8933
book	-8934
bott	-8935
care	-8936
crip	-8937
file	-8938
four	-8939
free	-8940
gain	-8941
gene	-8942
ibly	-8943
ivic	-8944
izes	-8945
lify	-8946
lock	-8947
lson	-8948
lunk	-8949
merg	-8950
mond	-8951
ocal	-8952
ocus	-8953
omin	-8954
onet	-8955
orth	-8956
park	-8957
peri	-8958
rill	-8959
rose	-8960
susp	-8961
swer	-8962
tell	-8963
tiff	-8964
usic	-8965
vate	-8966
vise	-8967
wide	-8968
wood	-8969
xies	-8970
▁($2	-8971
▁11(	-8972
▁120	-8973
▁198	-8974
▁2.8	-8975
▁20,	-8976
▁202	-8977
▁23,	-8978
▁250	-8979
▁28,	-8980
▁360	-8981
▁4.6	-8982
▁5.9	-8983
▁6.5	-8984
▁600	-8985
▁7.4	-8986
▁7.9	-8987
▁718	-8988
▁AAA	-8989
▁ABS	-8990
▁AGP	-8991
▁CAC	-8992
▁CAN	-8993
▁CIR	-8994
▁CNO	-8995
▁Cel	-8996
▁DVP	-8997
▁Eff	-8998
▁Esq	-8999
▁FUT	-9000
▁FVE	-9001
▁GMS	-9002
▁GSS	-9003
▁Har	-9004
▁IRC	-9005
▁Met	-9006
▁Ont	-9007
▁PTO	-9008
▁Pol	-9009
▁QLT	-9010
▁SHO	-9011
▁UNW	-9012
▁USE	-9013
▁WES	-9014
▁amp	-9015
▁asc	-9016
▁eas	-9017
▁har	-9018
▁let	-9019
▁mal	-9020
▁oil	-9021
▁zon	-9022
ACTED	-9023
ARENT	-9024
ATURE	-9025
BITED	-9026
Endis	-9027
ISCON	-9028
Oblig	-9029
Scope	-9030
UTIVE	-9031
Works	-9032
ailee	-9033
anine	-9034
ansas	-9035
atham	-9036
aults	-9037
bluth	-9038
first	-9039
icial	-9040
ields	-9041
istry	-9042
izing	-9043
layed	-9044
limit	-9045
nergy	-9046
owned	-9047
phere	-9048
pital	-9049
ponso	-9050
range	-9051
revoc	-9052
rowth	-9053
simil	-9054
title	-9055
tting	-9056
▁(23)	-9057
▁(24)	-9058
▁1.02	-9059
▁10.3	-9060
▁1026	-9061
▁11.6	-9062
▁1100	-9063
▁14.2	-9064
▁14.6	-9065
▁2.08	-9066
▁2.11	-9067
▁2.12	-9068
▁2.13	-9069
▁2.3(	-9070
▁2000	-9071
▁2009	-9072
▁3.03	-9073
▁3.14	-9074
▁365-	-9075
▁366-	-9076
▁4.03	-9077
▁4.15	-9078
▁4.2,	-9079
▁4.3,	-9080
▁430(	-9081
▁4999	-9082
▁5.02	-9083
▁5.3,	-9084
▁502(	-9085
▁6.02	-9086
▁6.06	-9087
▁6.3(	-9088
▁6060	-9089
▁8.01	-9090
▁8.03	-9091
▁8:30	-9092
▁9.02	-9093
▁9.11	-9094
▁ACQU	-9095
▁AMID	-9096
▁Arch	-9097
▁BIND	-9098
▁Best	-9099
▁CITY	-9100
▁CODE	-9101
▁Clay	-9102
▁Core	-9103
▁Cust	-9104
▁DAYS	-9105
▁DISC	-9106
▁DOES	-9107
▁East	-9108
▁Enum	-9109
▁FAIL	-9110
▁FILE	-9111
▁Fort	-9112
▁Foxt	-9113
▁GTHC	-9114
▁HFOL	-9115
▁HOLD	-9116
▁Ivey	-9117
▁Ligh	-9118
▁MODI	-9119
▁MPLS	-9120
▁Mail	-9121
▁More	-9122
▁NSNC	-9123
▁Nond	-9124
▁OpCo	-9125
▁PAID	-9126
▁POSS	-9127
▁PREV	-9128
▁PSPC	-9129
▁Paid	-9130
▁Paul	-9131
▁RECE	-9132
▁RELY	-9133
▁ROFO	-9134
▁RULE	-9135
▁THEY	-9136
▁TIME	-9137
▁[*].	-9138
▁adhe	-9139
▁city	-9140
▁dero	-9141
▁keys	-9142
▁land	-9143
▁left	-9144
▁lost	-9145
▁miti	-9146
▁move	-9147
▁stud	-9148
▁undu	-9149
▁ware	-9150
▁week	-9151
20,000	-9152
40,000	-9153
5,000.	-9154
ANCERY	-9155
ANCING	-9156
ANEOUS	-9157
Common	-9158
Excess	-9159
Matrix	-9160
Parent	-9161
ackage	-9162
almers	-9163
enging	-9164
ential	-9165
gentix	-9166
incial	-9167
inding	-9168
ington	-9169
istics	-9170
ligent	-9171
perior	-9172
reason	-9173
record	-9174
taking	-9175
terior	-9176
termin	-9177
uating	-9178
udiced	-9179
uities	-9180
urable	-9181
visees	-9182
▁(1/2)	-9183
▁(180)	-9184
▁(360)	-9185
▁(366)	-9186
▁(50%)	-9187
▁10.12	-9188
▁11:59	-9189
▁1993,	-9190
▁2.10(	-9191
▁2.18(	-9192
▁2.19(	-9193
▁2017.	-9194
▁2019,	-9195
▁6.09,	-9196
▁9.03(	-9197
▁Agios	-9198
▁BEING	-9199
▁BUYER	-9200
▁Broad	-9201
▁CONSU	-9202
▁COSTS	-9203
▁COVEN	-9204
▁Citig	-9205
▁David	-9206
▁EDGAR	-9207
▁Enter	-9208
▁FINRA	-9209
▁Fitch	-9210
▁HARML	-9211
▁Immat	-9212
▁Insol	-9213
▁JUDGE	-9214
▁LEASE	-9215
▁Music	-9216
▁OWNER	-9217
▁Owned	-9218
▁Press	-9219
▁Rapid	-9220
▁Sixth	-9221
▁Stone	-9222
▁THIRD	-9223
▁TOTAL	-9224
▁Union	-9225
▁Words	-9226
▁annex	-9227
▁areas	-9228
▁arose	-9229
▁banks	-9230
▁civic	-9231
▁count	-9232
▁cross	-9233
▁defer	-9234
▁detri	-9235
▁graph	-9236
▁handl	-9237
▁honor	-9238
▁immun	-9239
▁lacks	-9240
▁mails	-9241
▁minus	-9242
▁plain	-9243
▁raise	-9244
▁recon	-9245
▁speak	-9246
▁spend	-9247
▁still	-9248
▁telex	-9249
▁tenth	-9250
▁torti	-9251
▁world	-9252
.103-1(	-9253
ADICTED	-9254
Article	-9255
ISTERED	-9256
SEQUENT	-9257
Section	-9258
TAINING	-9259
assment	-9260
counter	-9261
express	-9262
graphic	-9263
iciency	-9264
otional	-9265
reshold	-9266
ruction	-9267
session	-9268
similes	-9269
through	-9270
ventory	-9271
▁$4,500	-9272
▁10.02(	-9273
▁10005,	-9274
▁10013,	-9275
▁11.04(	-9276
▁ACCEPT	-9277
▁AGENTS	-9278
▁Abbott	-9279
▁Active	-9280
▁Actual	-9281
▁BREACH	-9282
▁Before	-9283
▁DEFEND	-9284
▁DUTIES	-9285
▁Dispos	-9286
▁Energy	-9287
▁HAVING	-9288
▁Issued	-9289
▁Latham	-9290
▁PARENT	-9291
▁Pieris	-9292
▁Prepay	-9293
▁REMEDY	-9294
▁RESULT	-9295
▁Record	-9296
▁Social	-9297
▁Splunk	-9298
▁Stated	-9299
▁TRIBAL	-9300
▁Twenty	-9301
▁Versum	-9302
▁Versus	-9303
▁Vested	-9304
▁WAIVED	-9305
▁WHATSO	-9306
▁WITHIN	-9307
▁Warner	-9308
▁Watson	-9309
▁answer	-9310
▁bailee	-9311
▁choose	-9312
▁covers	-9313
▁defame	-9314
▁degree	-9315
▁drafts	-9316
▁effort	-9317
▁eighth	-9318
▁equals	-9319
▁imprac	-9320
▁inures	-9321
▁mechan	-9322
▁medium	-9323
▁myself	-9324
▁occupy	-9325
▁oppose	-9326
▁owning	-9327
▁papers	-9328
▁preser	-9329
▁retali	-9330
▁sealed	-9331
▁select	-9332
▁seller	-9333
▁sponso	-9334
▁stored	-9335
▁syndic	-9336
▁toward	-9337
▁unsusp	-9338
▁upward	-9339
▁wishes	-9340
▁worker	-9341
▁zoning	-9342
DERATION	-9343
NOWLEDGE	-9344
REDACTED	-9345
RELEASED	-9346
Required	-9347
STANDING	-9348
imbursed	-9349
interest	-9350
mergency	-9351
ordinate	-9352
register	-9353
resolved	-9354
tainment	-9355
tentions	-9356
termined	-9357
▁$10,000	-9358
▁10.2.9(	-9359
▁Audited	-9360
▁BINDING	-9361
▁Banking	-9362
▁Blocker	-9363
▁CONSEQU	-9364
▁Carlson	-9365
▁Celgene	-9366
▁Clayton	-9367
▁Contest	-9368
▁Corrupt	-9369
▁DEALING	-9370
▁DanDrit	-9371
▁Fitness	-9372
▁Foxtail	-9373
▁Fronted	-9374
▁Indiana	-9375
▁Lessors	-9376
▁Million	-9377
▁Minimum	-9378
▁NOTWITH	-9379
▁Newpark	-9380
▁Ontario	-9381
▁Phantom	-9382
▁Polaris	-9383
▁Pooling	-9384
▁Pricing	-9385
▁Private	-9386
▁Purpose	-9387
▁Records	-9388
▁SPECIFI	-9389
▁Scienti	-9390
▁Simonet	-9391
▁Systems	-9392
▁amplify	-9393
▁article	-9394
▁bargain	-9395
▁certify	-9396
▁concept	-9397
▁concern	-9398
▁consist	-9399
▁credits	-9400
▁custody	-9401
▁damaged	-9402
▁debtors	-9403
▁desired	-9404
▁details	-9405
▁digital	-9406
▁directs	-9407
▁emailed	-9408
▁examine	-9409
▁introdu	-9410
▁monitor	-9411
▁parking	-9412
▁postpon	-9413
▁proxies	-9414
▁reached	-9415
▁reclass	-9416
▁refused	-9417
▁resigns	-9418
▁scanned	-9419
▁shorten	-9420
▁standby	-9421
▁subcomm	-9422
▁telefax	-9423
▁testing	-9424
▁utilize	-9425
▁waiting	-9426
▁whistle	-9427
,000,000)	-9428
00,000.00	-9429
Borrowers	-9430
Committee	-9431
Endispute	-9432
Terrorism	-9433
delivered	-9434
orporated	-9435
pervision	-9436
revocable	-9437
struction	-9438
ticipated	-9439
▁ADDITION	-9440
▁Assuming	-9441
▁Barclays	-9442
▁CHANCERY	-9443
▁Cogentix	-9444
▁Communic	-9445
▁DECISION	-9446
▁Defaults	-9447
▁ENTERING	-9448
▁EXECUTED	-9449
▁Enumeral	-9450
▁Granting	-9451
▁HARMLESS	-9452
▁Historic	-9453
▁INTEREST	-9454
▁Issuance	-9455
▁Judicial	-9456
▁Lighting	-9457
▁Moreover	-9458
▁Official	-9459
▁PERSONAL	-9460
▁PLEDGORS	-9461
▁Practice	-9462
▁REMEDIES	-9463
▁RESPECTS	-9464
▁Research	-9465
▁Revolver	-9466
▁Richmond	-9467
▁Sublimit	-9468
▁Wherever	-9469
▁adoption	-9470
▁analyses	-9471
▁analysis	-9472
▁borrower	-9473
▁claimant	-9474
▁comprise	-9475
▁conveyed	-9476
▁creating	-9477
▁devisees	-9478
▁disclaim	-9479
▁distinct	-9480
▁estimate	-9481
▁expediti	-9482
▁feasible	-9483
▁findings	-9484
▁handling	-9485
▁hearings	-9486
▁herefrom	-9487
▁hospital	-9488
▁initiate	-9489
▁injected	-9490
▁insuring	-9491
▁invested	-9492
▁lawsuits	-9493
▁likewise	-9494
▁meetings	-9495
▁mitigate	-9496
▁observed	-9497
▁preamble	-9498
▁proposes	-9499
▁ratifies	-9500
▁reaffirm	-9501
▁reflects	-9502
▁resigned	-9503
▁sublease	-9504
▁supplies	-9505
▁tortious	-9506
MPORANEOUS	-9507
oluntarily	-9508
reasonably	-9509
▁Benefited	-9510
▁CONTAINED	-9511
▁Citigroup	-9512
▁CommScope	-9513
▁Condition	-9514
▁Custodian	-9515
▁EMPLOYEES	-9516
▁Ecosphere	-9517
▁Equipment	-9518
▁FINANCING	-9519
▁INDEMNIFY	-9520
▁KNOWLEDGE	-9521
▁LIABILITY	-9522
▁Mezzanine	-9523
▁NantWorks	-9524
▁Procedure	-9525
▁Quarterly	-9526
▁REGARDING	-9527
▁Retention	-9528
▁UNWRITTEN	-9529
▁abatement	-9530
▁adherence	-9531
▁adjusting	-9532
▁ascertain	-9533
▁calculate	-9534
▁carryover	-9535
▁challenge	-9536
▁committed	-9537
▁conceived	-9538
▁dedicated	-9539
▁directive	-9540
▁discloses	-9541
▁divisions	-9542
▁empowered	-9543
▁encourage	-9544
▁enjoining	-9545
▁inception	-9546
▁inclusion	-9547
▁mortgagee	-9548
▁negligent	-9549
▁nonpublic	-9550
▁pleadings	-9551
▁providers	-9552
▁recognize	-9553
▁regulated	-9554
▁rejection	-9555
▁reletting	-9556
▁residents	-9557
▁resolving	-9558
▁resources	-9559
▁sanctions	-9560
▁sponsored	-9561
▁sustained	-9562
▁unmatured	-9563
▁violating	-9564
▁warehouse	-9565
Competition	-9566
Obligations	-9567
▁$2,000,000	-9568
▁25,000,000	-9569
▁Adjustment	-9570
▁Appendices	-9571
▁Beneficial	-9572
▁Committees	-9573
▁Convention	-9574
▁Developing	-9575
▁Facilities	-9576
▁Immaterial	-9577
▁Insolvency	-9578
▁NEGLIGENCE	-9579
▁PERTAINING	-9580
▁PROHIBITED	-9581
▁Prepayment	-9582
▁REGISTERED	-9583
▁Reportable	-9584
▁STATEMENTS	-9585
▁SUBSEQUENT	-9586
▁WHATSOEVER	-9587
▁classified	-9588
▁collecting	-9589
▁components	-9590
▁conducting	-9591
▁confirming	-9592
▁cooperates	-9593
▁defamation	-9594
▁defeasance	-9595
▁depositing	-9596
▁derogatory	-9597
▁evaluating	-9598
▁exclusions	-9599
▁harassment	-9600
▁identifies	-9601
▁indentures	-9602
▁interviews	-9603
▁laundering	-9604
▁perfecting	-9605
▁perquisite	-9606
▁predicated	-9607
▁prejudiced	-9608
▁priorities	-9609
▁receivable	-9610
▁recognizes	-9611
▁refraining	-9612
▁strategies	-9613
▁telecopied	-9614
▁transition	-9615
▁undertakes	-9616
▁variations	-9617
COLLECTIVELY	-9618
Intellectual	-9619
▁Accelerable	-9620
▁ColorMatrix	-9621
▁Consultants	-9622
▁Encumbrance	-9623
▁Prepayments	-9624
▁Projections	-9625
▁Unitholders	-9626
▁advancement	-9627
▁ambiguities	-9628
▁challenging	-9629
▁collections	-9630
▁considering	-9631
▁consolidate	-9632
▁contemplate	-9633
▁cooperating	-9634
▁delinquency	-9635
▁denominator	-9636
▁destruction	-9637
▁discontinue	-9638
▁duplication	-9639
▁elimination	-9640
▁establishes	-9641
▁expenditure	-9642
▁irreparably	-9643
▁manufacture	-9644
▁multiplying	-9645
▁operational	-9646
▁overpayment	-9647
▁permanently	-9648
▁potentially	-9649
▁prepayments	-9650
▁questioning	-9651
▁reproducing	-9652
▁repurchases	-9653
▁reputations	-9654
▁retaliation	-9655
▁submissions	-9656
▁superseding	-9657
▁syndication	-9658
▁unsuspected	-9659
disparagement	-9660
▁CONTRADICTED	-9661
▁Incorporated	-9662
▁Nonqualified	-9663
▁Notification	-9664
▁Supplemental	-9665
▁Technologies	-9666
▁anticipation	-9667
▁calculations	-9668
▁constitution	-9669
▁constructive	-9670
▁designations	-9671
▁discontinued	-9672
▁institutions	-9673
▁periodically	-9674
▁preferential	-9675
▁reallocation	-9676
▁subcommittee	-9677
▁transferring	-9678
▁unilaterally	-9679
▁Beneficiaries	-9680
▁CONSIDERATION	-9681
▁Manufacturing	-9682
▁Nondisclosure	-9683
▁advertisement	-9684
▁comprehensive	-9685
▁consequential	-9686
▁entertainment	-9687
▁investigating	-9688
▁professionals	-9689
▁uncertainties	-9690
▁Administration	-9691
▁considerations	-9692
▁CONTEMPORANEOUS	-9693
▁NOTWITHSTANDING	-9694
,[	-9695
40	-9696
42	-9697
An	-9698
LO	-9699
95	-9700
MC	-9701
PU	-9702
QB	-9703
Sp	-9704
da	-9705
xx	-9706
▁/	-9707
(2)	-9708
)(3	-9709
*]%	-9710
.0%	-9711
.10	-9712
.13	-9713
111	-9714
15,	-9715
2-6	-9716
46)	-9717
648	-9718
73,	-9719
ACK	-9720
AGE	-9721
AUS	-9722
Act	-9723
Adv	-9724
Ann	-9725
Bud	-9726
CUM	-9727
ENE	-9728
EOC	-9729
ERS	-9730
Exp	-9731
GER	-9732
GOR	-9733
INA	-9734
INE	-9735
INO	-9736
LIC	-9737
Los	-9738
MAX	-9739
OIN	-9740
ONE	-9741
ONS	-9742
OSE	-9743
Pro	-9744
REE	-9745
Reg	-9746
SIN	-9747
STR	-9748
Sci	-9749
UND	-9750
URV	-9751
UTY	-9752
VES	-9753
VOG	-9754
adi	-9755
ama	-9756
apt	-9757
cur	-9758
daq	-9759
eno	-9760
eth	-9761
gos	-9762
lia	-9763
lus	-9764
nov	-9765
obe	-9766
okr	-9767
ols	-9768
ouc	-9769
tra	-9770
war	-9771
zel	-9772
▁$5	-9773
▁))	-9774
▁0%	-9775
▁01	-9776
▁28	-9777
▁35	-9778
▁46	-9779
▁48	-9780
▁8.	-9781
▁AW	-9782
▁CF	-9783
▁FB	-9784
▁GT	-9785
▁HS	-9786
▁IL	-9787
▁JD	-9788
▁ML	-9789
▁My	-9790
▁Pl	-9791
▁Ta	-9792
▁We	-9793
▁[*	-9794
▁je	-9795
▁§§	-9796
▁”,	-9797
.09(	-9798
473,	-9799
4.	-9800
je	-9801
sb	-9802
▁+	-9803
Acc	-9804
dee	-9805
equ	-9806
ric	-9807
rie	-9808
str	-9809
▁(5	-9810
▁2.	-9811
▁ee	-9812
AROL	-9813
ATRI	-9814
AUSE	-9815
AVOR	-9816
Bank	-9817
Buds	-9818
Five	-9819
GOTI	-9820
IGIN	-9821
NESS	-9822
Netw	-9823
OLOG	-9824
ORTH	-9825
Rata	-9826
STAN	-9827
Spec	-9828
TEND	-9829
TIRE	-9830
ULLY	-9831
USIN	-9832
UTES	-9833
YRIS	-9834
](2)	-9835
abby	-9836
abel	-9837
adel	-9838
amar	-9839
apol	-9840
assu	-9841
asts	-9842
ches	-9843
cons	-9844
dale	-9845
dens	-9846
enne	-9847
ercy	-9848
face	-9849
ffre	-9850
gion	-9851
head	-9852
hers	-9853
iled	-9854
ipal	-9855
issu	-9856
lara	-9857
laza	-9858
leen	-9859
lely	-9860
mbst	-9861
mith	-9862
mpqu	-9863
oGen	-9864
olog	-9865
orse	-9866
oung	-9867
ourn	-9868
pped	-9869
ppel	-9870
pror	-9871
rata	-9872
ratu	-9873
rink	-9874
ript	-9875
rock	-9876
rush	-9877
sale	-9878
scep	-9879
sear	-9880
ship	-9881
subs	-9882
ubin	-9883
vals	-9884
xley	-9885
ynch	-9886
yson	-9887
▁$37	-9888
▁(30	-9889
▁(60	-9890
▁(71	-9891
▁1.4	-9892
▁1.9	-9893
▁25,	-9894
▁29,	-9895
▁400	-9896
▁5.8	-9897
▁50%	-9898
▁622	-9899
1-	-9900
HR	-9901
ga	-9902
▁@	-9903
▁‐	-9904
.18	-9905
Def	-9906
IPT	-9907
UNI	-9908
VIE	-9909
non	-9910
orp	-9911
oti	-9912
ref	-9913
tak	-9914
▁FR	-9915
.07(	-9916
011-	-9917
EACH	-9918
ICES	-9919
Sall	-9920
anes	-9921
cell	-9922
fair	-9923
ides	-9924
ingu	-9925
itan	-9926
liff	-9927
zona	-9928
▁21,	-9929
▁7.6	-9930
▁7.7	-9931
▁9.6	-9932
▁AAC	-9933
▁ADI	-9934
▁ADV	-9935
▁Aff	-9936
▁Ark	-9937
▁Box	-9938
▁CAL	-9939
▁Cal	-9940
▁DSM	-9941
▁DUE	-9942
▁Dam	-9943
▁Den	-9944
▁Dom	-9945
▁FBR	-9946
▁Fis	-9947
▁GTM	-9948
▁HSR	-9949
▁ILL	-9950
▁INV	-9951
▁ISH	-9952
▁Inv	-9953
▁JDC	-9954
▁JMC	-9955
▁Kre	-9956
▁LAY	-9957
▁MAR	-9958
▁MBC	-9959
▁Mal	-9960
▁Men	-9961
▁Mir	-9962
▁Nas	-9963
▁Ova	-9964
▁PAA	-9965
▁PHM	-9966
▁Pow	-9967
▁Pru	-9968
▁QTS	-9969
▁RBT	-9970
▁REO	-9971
▁RET	-9972
▁RGP	-9973
▁RXR	-9974
▁Rat	-9975
▁Rel	-9976
▁SPE	-9977
▁SPL	-9978
▁SPV	-9979
▁Sum	-9980
▁TRS	-9981
▁TSA	-9982
▁TSR	-9983
▁TWH	-9984
▁Vac	-9985
▁Wac	-9986
▁Way	-9987
▁XEC	-9988
▁age	-9989
▁bal	-9990
▁bod	-9991
▁enl	-9992
▁eth	-9993
▁far	-9994
▁few	-9995
▁gas	-9996
▁hin	-9997
▁ide	-9998
▁inf	-9999
",	-10000
0.	-10001
46	-10002
Ch	-10003
SB	-10004
tt	-10005
EAR	-10006
ECH	-10007
ITS	-10008
UED	-10009
arp	-10010
mor	-10011
way	-10012
wes	-10013
▁PA	-10014
▁ts	-10015
YEAR	-10016
arsh	-10017
ract	-10018
▁(21	-10019
▁Luv	-10020
▁Mad	-10021
▁OID	-10022
▁fig	-10023
▁ink	-10024
▁key	-10025
▁ree	-10026
▁sky	-10027
▁slo	-10028
▁vis	-10029
,[*]%	-10030
8,500	-10031
ANDIS	-10032
ATELY	-10033
CTIVE	-10034
CUMST	-10035
ECTIC	-10036
ENCED	-10037
ENDOR	-10038
ERRED	-10039
ETENT	-10040
INOIS	-10041
Lease	-10042
MMONS	-10043
Medex	-10044
OSING	-10045
Other	-10046
Oxley	-10047
Party	-10048
Purch	-10049
Salle	-10050
Title	-10051
UALLY	-10052
UTION	-10053
UTORY	-10054
_____	-10055
adily	-10056
advis	-10057
akage	-10058
alers	-10059
amity	-10060
arges	-10061
batim	-10062
board	-10063
bound	-10064
break	-10065
chman	-10066
cings	-10067
count	-10068
defin	-10069
erate	-10070
ermes	-10071
etics	-10072
eting	-10073
faith	-10074
gence	-10075
iable	-10076
iated	-10077
icers	-10078
iered	-10079
ilian	-10080
ilife	-10081
itate	-10082
itous	-10083
jeure	-10084
jones	-10085
laint	-10086
liver	-10087
mmend	-10088
money	-10089
mpqua	-10090
night	-10091
okrun	-10092
omple	-10093
ource	-10094
place	-10095
point	-10096
risis	-10097
ropol	-10098
short	-10099
**	-10100
By	-10101
ME	-10102
yy	-10103
FUL	-10104
spa	-10105
▁Ev	-10106
isen	-10107
plus	-10108
▁GRE	-10109
▁HCW	-10110
otest	-10111
sible	-10112
taken	-10113
tieth	-10114
udget	-10115
ureau	-10116
uries	-10117
utine	-10118
venty	-10119
water	-10120
worth	-10121
▁1.03	-10122
▁10.9	-10123
▁12.5	-10124
▁120-	-10125
▁1322	-10126
▁16.1	-10127
▁1986	-10128
▁2.03	-10129
▁2.10	-10130
▁2.28	-10131
▁2008	-10132
▁2018	-10133
▁2020	-10134
▁20__	-10135
▁3.02	-10136
▁3.08	-10137
▁3.17	-10138
▁3.19	-10139
▁3.21	-10140
▁3.6(	-10141
▁302(	-10142
▁4.01	-10143
▁4.06	-10144
▁4.12	-10145
▁4.19	-10146
▁4.6,	-10147
▁4.9,	-10148
▁5.1,	-10149
▁5.10	-10150
▁5.12	-10151
▁5.13	-10152
▁5.15	-10153
▁5.3(	-10154
▁6.11	-10155
▁6.19	-10156
▁7.2(	-10157
▁7700	-10158
▁8.08	-10159
▁9.07	-10160
▁9.09	-10161
▁9.14	-10162
▁9.2,	-10163
▁9.3(	-10164
▁9:00	-10165
▁APUS	-10166
▁Adju	-10167
▁Awar	-10168
▁BENE	-10169
▁Banc	-10170
▁Bion	-10171
▁CEOC	-10172
▁Case	-10173
▁Craw	-10174
▁DONE	-10175
▁DUTY	-10176
▁Fire	-10177
▁Flow	-10178
▁Germ	-10179
▁Goal	-10180
▁Gram	-10181
▁HSBC	-10182
▁Hill	-10183
▁IMAX	-10184
▁JOIN	-10185
▁LACK	-10186
▁LIKE	-10187
▁LOSS	-10188
▁Life	-10189
▁Long	-10190
▁Mark	-10191
▁Name	-10192
▁Nash	-10193
▁ONLY	-10194
▁OPER	-10195
▁OVER	-10196
▁PHMD	-10197
▁POST	-10198
▁PVOG	-10199
▁Prom	-10200
▁Rein	-10201
▁SIGN	-10202
▁SUAs	-10203
▁SURV	-10204
▁Sarb	-10205
▁They	-10206
▁Trib	-10207
▁True	-10208
▁WERE	-10209
▁Wash	-10210
▁Writ	-10211
▁XIII	-10212
▁away	-10213
▁bail	-10214
▁card	-10215
▁dead	-10216
▁diem	-10217
▁down	-10218
▁drug	-10219
▁esto	-10220
▁flex	-10221
▁garn	-10222
▁high	-10223
▁hire	-10224
▁late	-10225
▁lear	-10226
▁open	-10227
▁pers	-10228
▁rein	-10229
▁rene	-10230
▁reve	-10231
▁roll	-10232
▁sort	-10233
▁unan	-10234
▁vouc	-10235
▁wage	-10236
▁”)).	-10237
30,000	-10238
35,000	-10239
ANTIES	-10240
ATRIOT	-10241
Annual	-10242
Applic	-10243
CTIONS	-10244
Change	-10245
Credit	-10246
ENTIAL	-10247
ESSION	-10248
EXCEPT	-10249
IGINAL	-10250
Junior	-10251
MENTAL	-10252
Senior	-10253
TITLED	-10254
Techne	-10255
ancery	-10256
apolis	-10257
ardian	-10258
argets	-10259
asibly	-10260
chures	-10261
cision	-10262
client	-10263
ctives	-10264
drawal	-10265
equity	-10266
filing	-10267
genics	-10268
gments	-10269
impson	-10270
isible	-10271
issory	-10272
jonesw	-10273
lauses	-10274
lawful	-10275
locked	-10276
ortion	-10277
ounted	-10278
ousing	-10279
person	-10280
search	-10281
selves	-10282
solely	-10283
though	-10284
tinent	-10285
udgets	-10286
unoGen	-10287
viewer	-10288
▁$.001	-10289
▁(120)	-10290
▁(646)	-10291
▁10.08	-10292
▁10.09	-10293
▁10.10	-10294
▁10.11	-10295
▁10.15	-10296
▁10.24	-10297
▁10.3(	-10298
▁1000,	-10299
▁11.06	-10300
▁11.3(	-10301
▁1977,	-10302
▁2.01(	-10303
▁2007,	-10304
▁2011,	-10305
▁2013.	-10306
▁2019.	-10307
▁4.13(	-10308
▁5.01(	-10309
▁6.06;	-10310
▁7.10(	-10311
▁8.14(	-10312
▁Accum	-10313
▁Adobe	-10314
▁Array	-10315
▁Autom	-10316
▁BUSIN	-10317
▁Basic	-10318
▁Brook	-10319
▁CAROL	-10320
▁Clara	-10321
▁Clark	-10322
▁Codes	-10323
▁Cross	-10324
▁Equal	-10325
▁FACTS	-10326
▁FAVOR	-10327
▁FULLY	-10328
▁Fifty	-10329
▁Grain	-10330
▁IMPRO	-10331
▁INSTR	-10332
▁ISSUE	-10333
▁Jones	-10334
▁KNOWN	-10335
▁Limit	-10336
▁Logic	-10337
▁Lynch	-10338
▁MONTH	-10339
▁Motor	-10340
▁NONEX	-10341
▁NORTH	-10342
▁OFFIC	-10343
▁Piggy	-10344
▁Plaza	-10345
▁Point	-10346
▁Poten	-10347
▁REVIE	-10348
▁Rosen	-10349
▁Rubin	-10350
▁SEPAR	-10351
▁SPLNG	-10352
▁SUPER	-10353
▁Sabby	-10354
▁Sharp	-10355
▁Smith	-10356
▁TERMS	-10357
▁Table	-10358
▁Topic	-10359
▁Tyson	-10360
▁WHOLE	-10361
▁XXXXX	-10362
▁Years	-10363
▁Young	-10364
▁adopt	-10365
▁asked	-10366
▁demon	-10367
▁depri	-10368
▁enjoy	-10369
▁escal	-10370
▁exact	-10371
▁falls	-10372
▁files	-10373
▁firms	-10374
▁floor	-10375
▁goods	-10376
▁grain	-10377
▁gratu	-10378
▁ideas	-10379
▁imply	-10380
▁judic	-10381
▁logos	-10382
▁lower	-10383
▁marsh	-10384
▁munic	-10385
▁paper	-10386
▁phone	-10387
▁reach	-10388
▁rents	-10389
▁seeks	-10390
▁tiers	-10391
▁unass	-10392
,000.00	-10393
800,000	-10394
ECTICUT	-10395
Funding	-10396
Grantor	-10397
Related	-10398
Renewal	-10399
Science	-10400
Sharing	-10401
Tenants	-10402
Vesting	-10403
abeling	-10404
athleen	-10405
blowing	-10406
country	-10407
defined	-10408
denames	-10409
dential	-10410
earches	-10411
ference	-10412
fulfill	-10413
gotiate	-10414
liament	-10415
ominium	-10416
omplete	-10417
osition	-10418
titrust	-10419
western	-10420
▁10.04(	-10421
▁10004,	-10422
▁2016-1	-10423
▁ACTUAL	-10424
▁AMYRIS	-10425
▁ASSERT	-10426
▁Angion	-10427
▁Budget	-10428
▁CAUSES	-10429
▁COMMON	-10430
▁CONSUL	-10431
▁Candid	-10432
▁Copies	-10433
▁Course	-10434
▁DISCUS	-10435
▁Defect	-10436
▁Denver	-10437
▁Domain	-10438
▁ENTIRE	-10439
▁EXTEND	-10440
▁Exempt	-10441
▁FUTURE	-10442
▁Fiserv	-10443
▁Franch	-10444
▁Growth	-10445
▁Hermes	-10446
▁INTEND	-10447
▁LAYING	-10448
▁Makers	-10449
▁Menzel	-10450
▁Minera	-10451
▁NATURE	-10452
▁NEGOTI	-10453
▁Nasdaq	-10454
▁Normal	-10455
▁Owners	-10456
▁Parcel	-10457
▁RELIED	-10458
▁REVOKE	-10459
▁Region	-10460
▁Rogers	-10461
▁SUFFIC	-10462
▁Square	-10463
▁Stream	-10464
▁Survey	-10465
▁TERMIN	-10466
▁Termin	-10467
▁Umpqua	-10468
▁Unsubs	-10469
▁VENDOR	-10470
▁WISCON	-10471
▁Wacker	-10472
▁across	-10473
▁amends	-10474
▁amorti	-10475
▁arisen	-10476
▁assent	-10477
▁bodily	-10478
▁candid	-10479
▁coming	-10480
▁crisis	-10481
▁exchan	-10482
▁expand	-10483
▁fiduci	-10484
▁formal	-10485
▁funded	-10486
▁gather	-10487
▁ground	-10488
▁hinder	-10489
▁hourly	-10490
▁illust	-10491
▁imperm	-10492
▁implic	-10493
▁initio	-10494
▁integr	-10495
▁invent	-10496
▁latest	-10497
▁manual	-10498
▁merely	-10499
▁newspa	-10500
▁opened	-10501
▁overly	-10502
▁places	-10503
▁posted	-10504
▁remade	-10505
▁resort	-10506
▁revise	-10507
▁script	-10508
▁servic	-10509
▁singly	-10510
▁slogan	-10511
▁stayed	-10512
▁sublet	-10513
▁sugges	-10514
▁suscep	-10515
▁tombst	-10516
▁treaty	-10517
▁trusts	-10518
▁unfair	-10519
▁unfore	-10520
▁vendor	-10521
▁weekly	-10522
▁worked	-10523
Certific	-10524
Exchange	-10525
Networks	-10526
Released	-10527
STANTIVE	-10528
ableness	-10529
criptive	-10530
directly	-10531
existing	-10532
gressive	-10533
loration	-10534
priority	-10535
prorated	-10536
rogatory	-10537
tilities	-10538
▁$.00001	-10539
▁1.6011-	-10540
▁ANOTHER	-10541
▁Annuity	-10542
▁Arizona	-10543
▁Auditor	-10544
▁Average	-10545
▁Awardee	-10546
▁Biotest	-10547
▁Bookrun	-10548
▁Bribery	-10549
▁Brokers	-10550
▁Broward	-10551
▁COVERED	-10552
▁Credits	-10553
▁Deliver	-10554
▁English	-10555
▁FAILURE	-10556
▁FOREVER	-10557
▁Germany	-10558
▁Hedging	-10559
▁Hochman	-10560
▁INVALID	-10561
▁Insider	-10562
▁Islands	-10563
▁Kreider	-10564
▁LENDERS	-10565
▁LaSalle	-10566
▁LuvBuds	-10567
▁MUTATIS	-10568
▁Merrill	-10569
▁Miramar	-10570
▁NEITHER	-10571
▁OBLIGOR	-10572
▁PATRIOT	-10573
▁PAYABLE	-10574
▁PAYMENT	-10575
▁Package	-10576
▁RECEIPT	-10577
▁Ratings	-10578
▁Regular	-10579
▁Request	-10580
▁SPECIAL	-10581
▁SUMMONS	-10582
▁SURVIVE	-10583
▁Schadel	-10584
▁Secrets	-10585
▁Standby	-10586
▁Telecop	-10587
▁Titling	-10588
▁Unilife	-10589
▁WESTERN	-10590
▁Watkins	-10591
▁Workers	-10592
▁accrual	-10593
▁accrues	-10594
▁affixed	-10595
▁annexed	-10596
▁bankers	-10597
▁bonding	-10598
▁budgets	-10599
▁burdens	-10600
▁classes	-10601
▁conveys	-10602
▁defraud	-10603
▁denying	-10604
▁derived	-10605
▁detract	-10606
▁enacted	-10607
▁endorse	-10608
▁enlarge	-10609
▁example	-10610
▁explain	-10611
▁exposes	-10612
▁factors	-10613
▁figures	-10614
▁grantor	-10615
▁graphic	-10616
▁harmful	-10617
▁imposes	-10618
▁inadvis	-10619
▁informs	-10620
▁legends	-10621
▁lodging	-10622
▁looking	-10623
▁markets	-10624
▁million	-10625
▁motions	-10626
▁obligor	-10627
▁privacy	-10628
▁project	-10629
▁readily	-10630
▁remarks	-10631
▁renders	-10632
▁restate	-10633
▁reviews	-10634
▁revokes	-10635
▁routine	-10636
▁succeed	-10637
▁surveys	-10638
▁tenancy	-10639
▁towards	-10640
▁trigger	-10641
▁unaware	-10642
▁willing	-10643
▁winding	-10644
5,000.00)	-10645
Leaseback	-10646
Purchaser	-10647
novations	-10648
ropolitan	-10649
▁$120,000	-10650
▁$400,000	-10651
▁$750,000	-10652
▁ASSERTED	-10653
▁Anything	-10654
▁Appealed	-10655
▁Archrock	-10656
▁Arkansas	-10657
▁BUSINESS	-10658
▁CAROLINA	-10659
▁CIRCUMST	-10660
▁Chancery	-10661
▁Compound	-10662
▁Conduent	-10663
▁Contents	-10664
▁Crawford	-10665
▁Criteria	-10666
▁DELIVERY	-10667
▁ENTITLED	-10668
▁Election	-10669
▁Evidence	-10670
▁Extended	-10671
▁Fidelity	-10672
▁Franklin	-10673
▁GREEMENT	-10674
▁Gramercy	-10675
▁HEREWITH	-10676
▁ILLINOIS	-10677
▁MORTGAGE	-10678
▁MUTANDIS	-10679
▁Measures	-10680
▁NORTHERN	-10681
▁Northern	-10682
▁ORIGINAL	-10683
▁Officers	-10684
▁PROCEEDS	-10685
▁Province	-10686
▁REFERRED	-10687
▁Reviewer	-10688
▁SERVICES	-10689
▁SPECIFIC	-10690
▁Sarbanes	-10691
▁Solvency	-10692
▁THEREFOR	-10693
▁Unvested	-10694
▁Vacation	-10695
▁XECUTIVE	-10696
▁[*],[*]%	-10697
▁accessed	-10698
▁accident	-10699
▁adequacy	-10700
▁advanced	-10701
▁annivers	-10702
▁arbitral	-10703
▁assignor	-10704
▁bailment	-10705
▁building	-10706
▁calamity	-10707
▁cashless	-10708
▁commonly	-10709
▁compiled	-10710
▁conclude	-10711
▁dealings	-10712
▁deferral	-10713
▁detached	-10714
▁dispatch	-10715
▁dissolve	-10716
▁distress	-10717
▁district	-10718
▁division	-10719
▁endorsed	-10720
▁fidelity	-10721
▁financed	-10722
▁flexible	-10723
▁foreseen	-10724
▁guardian	-10725
▁injuries	-10726
▁insureds	-10727
▁internet	-10728
▁itemized	-10729
▁licensee	-10730
▁mediator	-10731
▁narrowly	-10732
▁novation	-10733
▁occupied	-10734
▁outbreak	-10735
▁payables	-10736
▁pleading	-10737
▁preempts	-10738
▁presents	-10739
▁produced	-10740
▁progress	-10741
▁purports	-10742
▁quarters	-10743
▁ratified	-10744
▁referral	-10745
▁research	-10746
▁revoking	-10747
▁sureties	-10748
▁tradable	-10749
▁unlawful	-10750
▁valuable	-10751
▁ventures	-10752
▁verbatim	-10753
▁voidable	-10754
▁websites	-10755
▁whenever	-10756
Applicable	-10757
complaints	-10758
determined	-10759
possession	-10760
reportable	-10761
revocation	-10762
worthiness	-10763
▁5,000,000	-10764
▁Acknowled	-10765
▁Assignees	-10766
▁Attorneys	-10767
▁Brazilian	-10768
▁COMPETENT	-10769
▁CONTINUED	-10770
▁COVENANTS	-10771
▁DECISIONS	-10772
▁DISCHARGE	-10773
▁Diligence	-10774
▁EXCLUDING	-10775
▁Employing	-10776
▁Exposures	-10777
▁Formation	-10778
▁ImmunoGen	-10779
▁Invention	-10780
▁Inventory	-10781
▁Logicmark	-10782
▁MORTGAGOR	-10783
▁Mandatory	-10784
▁Marketing	-10785
▁Medgenics	-10786
▁Nashville	-10787
▁Piggyback	-10788
▁Potential	-10789
▁Relations	-10790
▁Requisite	-10791
▁STATUTORY	-10792
▁Scheduled	-10793
▁Servicers	-10794
▁Specially	-10795
▁Substance	-10796
▁WISCONSIN	-10797
▁accounted	-10798
▁additions	-10799
▁ancillary	-10800
▁assisting	-10801
▁belonging	-10802
▁brochures	-10803
▁comprised	-10804
▁comprises	-10805
▁corrected	-10806
▁detriment	-10807
▁disbursed	-10808
▁displayed	-10809
▁divisible	-10810
▁easements	-10811
▁efficient	-10812
▁emergency	-10813
▁employers	-10814
▁entitling	-10815
▁evaluated	-10816
▁exonerate	-10817
▁expresses	-10818
▁forecasts	-10819
▁gathering	-10820
▁hazardous	-10821
▁impairing	-10822
▁insurable	-10823
▁interbank	-10824
▁invention	-10825
▁liquidate	-10826
▁mechanics	-10827
▁mentioned	-10828
▁municipal	-10829
▁numerator	-10830
▁partially	-10831
▁pertinent	-10832
▁possessed	-10833
▁practical	-10834
▁prescribe	-10835
▁prevented	-10836
▁privately	-10837
▁proration	-10838
▁reaffirms	-10839
▁recurring	-10840
▁registers	-10841
▁registrar	-10842
▁responses	-10843
▁restraint	-10844
▁satisfies	-10845
▁separated	-10846
▁signatory	-10847
▁strictest	-10848
▁subjected	-10849
▁sublessee	-10850
▁subtenant	-10851
▁telefaxed	-10852
▁threshold	-10853
▁worldwide	-10854
00,000,000,	-10855
Certificate	-10856
fulfillment	-10857
joneswalker	-10858
▁ACCEPTANCE	-10859
▁Borrowings	-10860
▁CONSTITUTE	-10861
▁Copyrights	-10862
▁DISCHARGES	-10863
▁Definitive	-10864
▁Depository	-10865
▁Guarantees	-10866
▁Healthcare	-10867
▁Historical	-10868
▁INDEMNITEE	-10869
▁INJUNCTIVE	-10870
▁INSTRUMENT	-10871
▁Membership	-10872
▁OvaScience	-10873
▁POSSESSION	-10874
▁Parliament	-10875
▁PhotoMedex	-10876
▁Procedures	-10877
▁Prohibited	-10878
▁Promissory	-10879
▁Prudential	-10880
▁Requesting	-10881
▁Scientific	-10882
▁Subsequent	-10883
▁Syndicated	-10884
▁Thereafter	-10885
▁Underlying	-10886
▁WARRANTIES	-10887
▁Washington	-10888
▁affidavits	-10889
▁alienation	-10890
▁appearance	-10891
▁appraisals	-10892
▁attendance	-10893
▁borrowings	-10894
▁complaints	-10895
▁consenting	-10896
▁construing	-10897
▁contesting	-10898
▁directives	-10899
▁disapprove	-10900
▁encumbered	-10901
▁enrollment	-10902
▁escalation	-10903
▁exchanging	-10904
▁executions	-10905
▁expressing	-10906
▁financials	-10907
▁financings	-10908
▁generation	-10909
▁gratuitous	-10910
▁historical	-10911
▁impossible	-10912
▁includable	-10913
▁incomplete	-10914
▁infringing	-10915
▁initiating	-10916
▁initiation	-10917
▁intentions	-10918
▁introduced	-10919
▁judicially	-10920
▁negotiated	-10921
▁obtainable	-10922
▁occupation	-10923
▁patentable	-10924
▁permission	-10925
▁preserving	-10926
▁provincial	-10927
▁questioned	-10928
▁recoveries	-10929
▁reductions	-10930
▁refinanced	-10931
▁reimburses	-10932
▁reinstated	-10933
▁remediated	-10934
▁stipulates	-10935
▁submitting	-10936
▁subsisting	-10937
▁succession	-10938
▁testifying	-10939
▁themselves	-10940
▁tradenames	-10941
▁unasserted	-10942
▁unforeseen	-10943
▁unresolved	-10944
Commencement	-10945
▁ACKNOWLEDGE	-10946
▁Angionetics	-10947
▁Anniversary	-10948
▁Anticipated	-10949
▁CONNECTICUT	-10950
▁CONSTITUTES	-10951
▁Condominium	-10952
▁Constituent	-10953
▁Definitions	-10954
▁EXCLUSIVELY	-10955
▁INDEMNITEES	-10956
▁Involuntary	-10957
▁Irrevocable	-10958
▁NEGOTIATION	-10959
▁PROCEEDINGS	-10960
▁Progressive	-10961
▁Publication	-10962
▁Refinancing	-10963
▁Restriction	-10964
▁SUBSTANTIVE	-10965
▁Substituted	-10966
▁Underwriter	-10967
▁__________,	-10968
▁abandonment	-10969
▁allocations	-10970
▁competently	-10971
▁computation	-10972
▁conclusions	-10973
▁depositions	-10974
▁descriptive	-10975
▁documentary	-10976
▁equivalents	-10977
▁excessively	-10978
▁fiduciaries	-10979
▁forbearance	-10980
▁franchisees	-10981
▁garnishment	-10982
▁hostilities	-10983
▁hypothecate	-10984
▁implication	-10985
▁improvement	-10986
▁inadvisable	-10987
▁involvement	-10988
▁marketplace	-10989
▁measurement	-10990
▁necessitate	-10991
▁percentages	-10992
▁perspective	-10993
▁prohibiting	-10994
▁refinancing	-10995
▁renegotiate	-10996
▁sufficiency	-10997
▁supervision	-10998
▁susceptible	-10999
▁uncertainty	-11000
▁Contributors	-11001
▁Counterparty	-11002
▁Equityholder	-11003
▁Infringement	-11004
▁NONEXCLUSIVE	-11005
▁Underwriters	-11006
▁Unsubscribed	-11007
▁____________	-11008
▁implementing	-11009
▁indefeasibly	-11010
▁interference	-11011
▁nonrecurring	-11012
▁partnerships	-11013
▁restatements	-11014
▁significance	-11015
▁unreimbursed	-11016
▁Alternatively	-11017
▁Authorization	-11018
▁CONSEQUENTIAL	-11019
▁Effectiveness	-11020
▁Subordination	-11021
▁anniversaries	-11022
▁copyrightable	-11023
▁equityholders	-11024
▁expeditiously	-11025
▁impracticable	-11026
▁interrogatory	-11027
▁involuntarily	-11028
▁significantly	-11029
▁subordination	-11030
Confidentiality	-11031
▁Communications	-11032
▁Enforceability	-11033
▁Qualifications	-11034
▁Representation	-11035
▁UNDERSTANDINGS	-11036
▁Warrantholders	-11037
▁constitutional	-11038
▁implementation	-11039
▁nonperformance	-11040
▁Commercializing	-11041
▁acknowledgement	-11042
▁characteristics	-11043
▁hospitalization	-11044
▁internationally	-11045
▁nonconfidential	-11046
(1)	-11047
-06	-11048
...	-11049
.4.	-11050
15:	-11051
204	-11052
21,	-11053
24,	-11054
3,0	-11055
40,	-11056
41,	-11057
480	-11058
5-1	-11059
63,	-11060
65,	-11061
695	-11062
77/	-11063
980	-11064
:15	-11065
Alt	-11066
CLU	-11067
DAQ	-11068
DEA	-11069
FRI	-11070
IOD	-11071
IPA	-11072
LOW	-11073
NOT	-11074
OTH	-11075
PPL	-11076
PRI	-11077
UNE	-11078
VID	-11079
avy	-11080
fmi	-11081
hsb	-11082
ova	-11083
▁*]	-11084
▁+1	-11085
▁07	-11086
▁Qu	-11087
▁XV	-11088
▁];	-11089
▁§2	-11090
▁§5	-11091
▁’’	-11092
**])	-11093
-550	-11094
-986	-11095
.3-1	-11096
067,	-11097
182,	-11098
3,33	-11099
320	-11100
355	-11101
42)	-11102
848	-11103
BLE	-11104
GMP	-11105
MPT	-11106
VOL	-11107
naS	-11108
▁XL	-11109
2601	-11110
355(	-11111
4,99	-11112
40.2	-11113
6,22	-11114
6,66	-11115
860,	-11116
ACHE	-11117
AMAR	-11118
ANGE	-11119
BITD	-11120
DATE	-11121
ECHN	-11122
FITS	-11123
IARY	-11124
ITOW	-11125
LINE	-11126
MAIN	-11127
Noti	-11128
OSED	-11129
PAID	-11130
PART	-11131
PEND	-11132
QUID	-11133
ROSS	-11134
RSUs	-11135
Subs	-11136
TIFF	-11137
UDIC	-11138
aker	-11139
arov	-11140
bara	-11141
bigu	-11142
both	-11143
ceny	-11144
cogn	-11145
cour	-11146
enix	-11147
enoP	-11148
gacy	-11149
grie	-11150
hsbc	-11151
iana	-11152
ickl	-11153
itiw	-11154
osta	-11155
rack	-11156
rams	-11157
rett	-11158
udio	-11159
volo	-11160
worn	-11161
xmor	-11162
▁$13	-11163
▁$36	-11164
▁($[	-11165
▁(20	-11166
▁(22	-11167
▁(“.	-11168
▁1-8	-11169
▁125	-11170
▁12:	-11171
▁190	-11172
▁21-	-11173
▁223	-11174
▁25%	-11175
▁30-	-11176
▁333	-11177
▁383	-11178
▁388	-11179
▁408	-11180
▁424	-11181
▁590	-11182
▁6.6	-11183
▁6.7	-11184
▁6.9	-11185
▁8.5	-11186
▁8.7	-11187
▁8.8	-11188
▁803	-11189
▁90-	-11190
▁950	-11191
▁AFG	-11192
▁Atl	-11193
▁CAD	-11194
▁CDK	-11195
▁CFR	-11196
▁CPL	-11197
▁CUS	-11198
▁FFD	-11199
.3.	-11200
BCA	-11201
UTH	-11202
oks	-11203
KETS	-11204
LIED	-11205
LLED	-11206
keep	-11207
▁19.	-11208
▁9.7	-11209
▁Cap	-11210
▁FIF	-11211
▁FIR	-11212
▁GEO	-11213
▁GMP	-11214
▁HHS	-11215
▁HSI	-11216
▁IPO	-11217
▁ISA	-11218
▁JSC	-11219
▁Kel	-11220
▁Kur	-11221
▁LEI	-11222
▁LEY	-11223
▁LPA	-11224
▁MIR	-11225
▁MOU	-11226
▁MSA	-11227
▁MSR	-11228
▁MST	-11229
▁Mau	-11230
▁NAS	-11231
▁NLO	-11232
▁PCA	-11233
▁PCT	-11234
▁RAM	-11235
▁Rob	-11236
▁SEL	-11237
▁TRA	-11238
▁TRG	-11239
▁UND	-11240
▁XII	-11241
▁“$2	-11242
▁“$3	-11243
-5695	-11244
.05),	-11245
2,204	-11246
2-658	-11247
4,993	-11248
40.20	-11249
8602,	-11250
:15-7	-11251
ANCES	-11252
CLUDE	-11253
ERBAL	-11254
FRING	-11255
Frank	-11256
ISPUT	-11257
MMUNE	-11258
Money	-11259
OWING	-11260
ROPRI	-11261
Short	-11262
Sight	-11263
TIPUL	-11264
Taxes	-11265
Terms	-11266
UTHOR	-11267
VOLVE	-11268
YANCE	-11269
abama	-11270
agara	-11271
alian	-11272
alone	-11273
ancou	-11274
angib	-11275
borne	-11276
cenac	-11277
check	-11278
coven	-11279
docus	-11280
drawn	-11281
ffrey	-11282
icker	-11283
iques	-11284
light	-11285
marks	-11286
naSys	-11287
obile	-11288
occur	-11289
oenix	-11290
opard	-11291
ounds	-11292
piggy	-11293
pread	-11294
quirk	-11295
trade	-11296
udson	-11297
unior	-11298
vison	-11299
FM	-11300
.2.	-11301
143	-11302
32)	-11303
▁6.	-11304
▁75	-11305
▁Je	-11306
ONVE	-11307
SUIT	-11308
UNDA	-11309
also	-11310
rude	-11311
trol	-11312
ways	-11313
▁021	-11314
▁1.2	-11315
▁Fax	-11316
▁ISP	-11317
▁Laz	-11318
▁Lev	-11319
▁PFM	-11320
▁VAL	-11321
▁Val	-11322
▁Vis	-11323
Defin	-11324
omark	-11325
udged	-11326
xford	-11327
▁$500	-11328
▁(1%)	-11329
▁(36)	-11330
▁(5%)	-11331
▁1.0%	-11332
▁1.04	-11333
▁1.66	-11334
▁10.5	-11335
▁10.7	-11336
▁1002	-11337
▁1017	-11338
▁1028	-11339
▁11.4	-11340
▁12.3	-11341
▁12.8	-11342
▁13.3	-11343
▁143,	-11344
▁15.4	-11345
▁17.3	-11346
▁1996	-11347
▁1997	-11348
▁2.09	-11349
▁2.14	-11350
▁2.4,	-11351
▁2006	-11352
▁3(1)	-11353
▁3.3(	-11354
▁33.3	-11355
▁4.02	-11356
▁4.05	-11357
▁4.17	-11358
▁4.3.	-11359
▁4.5,	-11360
▁4.5.	-11361
▁4.8.	-11362
▁404(	-11363
▁4069	-11364
▁412(	-11365
▁414(	-11366
▁4201	-11367
▁5.05	-11368
▁5.06	-11369
▁5.14	-11370
▁5.4,	-11371
▁5500	-11372
▁6.04	-11373
▁6.09	-11374
▁6.12	-11375
▁6.4(	-11376
▁6.4,	-11377
▁7.04	-11378
▁7.11	-11379
▁7.4(	-11380
▁7.6,	-11381
▁8.02	-11382
▁8.14	-11383
▁8.2(	-11384
▁8500	-11385
▁9-30	-11386
▁9.1,	-11387
▁9.2.	-11388
▁9.3,	-11389
▁ADAP	-11390
▁ADGE	-11391
▁Acts	-11392
▁Aero	-11393
▁BOTH	-11394
▁CANA	-11395
▁CDTI	-11396
▁CLRI	-11397
▁CPLR	-11398
▁Chan	-11399
Bu	-11400
AAA	-11401
ALS	-11402
End	-11403
RAN	-11404
SIT	-11405
URN	-11406
▁Vi	-11407
▁rd	-11408
Guar	-11409
anks	-11410
ream	-11411
usan	-11412
▁401	-11413
▁RED	-11414
▁run	-11415
▁”))	-11416
Chief	-11417
Local	-11418
POSIT	-11419
arbit	-11420
ermud	-11421
green	-11422
ictor	-11423
mised	-11424
ondon	-11425
otely	-11426
rinkl	-11427
ripen	-11428
rushy	-11429
vants	-11430
▁2010	-11431
▁4.1.	-11432
▁4980	-11433
▁Aust	-11434
▁EFRI	-11435
▁Econ	-11436
▁FICA	-11437
▁FLSA	-11438
▁FREE	-11439
▁GSSI	-11440
▁HCSB	-11441
▁Hart	-11442
▁Hick	-11443
▁IRCT	-11444
▁Iron	-11445
▁Jury	-11446
▁Keep	-11447
▁Loop	-11448
▁MAKE	-11449
▁MEMB	-11450
▁Maui	-11451
▁OPIS	-11452
▁Once	-11453
▁Only	-11454
▁PPSA	-11455
▁Palm	-11456
▁Pref	-11457
▁RATE	-11458
▁REDU	-11459
▁SELL	-11460
▁SUFF	-11461
▁Swap	-11462
▁Syst	-11463
▁TARR	-11464
▁TRIB	-11465
▁Visa	-11466
▁Wood	-11467
▁](1)	-11468
▁]†%)	-11469
▁abro	-11470
▁cGMP	-11471
▁disa	-11472
▁embe	-11473
▁euro	-11474
▁fill	-11475
▁genu	-11476
▁laid	-11477
▁malf	-11478
▁mask	-11479
▁pack	-11480
▁quan	-11481
▁rang	-11482
▁rema	-11483
▁scan	-11484
▁site	-11485
▁very	-11486
▁“$27	-11487
-0621,	-11488
-9867,	-11489
0,000)	-11490
10.3-1	-11491
333,33	-11492
41-550	-11493
7,860,	-11494
74,000	-11495
77/480	-11496
ACTION	-11497
AILING	-11498
Actuar	-11499
.1.	-11500
.11	-11501
.17	-11502
LSS	-11503
Rep	-11504
SES	-11505
new	-11506
ple	-11507
▁4.	-11508
▁59	-11509
▁63	-11510
▁OS	-11511
▁Ol	-11512
Qual	-11513
aded	-11514
dgar	-11515
eart	-11516
ewis	-11517
▁10.	-11518
▁2.7	-11519
▁300	-11520
▁And	-11521
▁BEC	-11522
▁Fen	-11523
▁NBT	-11524
▁Neb	-11525
▁tic	-11526
ATISF	-11527
DUCTS	-11528
cliff	-11529
▁1.00	-11530
▁6.1,	-11531
▁9.17	-11532
▁DLSS	-11533
▁Nebr	-11534
BITDAR	-11535
Connor	-11536
ELATOR	-11537
ENTURE	-11538
ITOWOC	-11539
Leased	-11540
Losses	-11541
MPLAIN	-11542
Member	-11543
OWEVER	-11544
RANGER	-11545
SITION	-11546
Shares	-11547
Syndic	-11548
Target	-11549
ULLIFY	-11550
abling	-11551
ackson	-11552
actice	-11553
actual	-11554
alegal	-11555
ambigu	-11556
ancies	-11557
anteed	-11558
apture	-11559
armace	-11560
arting	-11561
atible	-11562
blower	-11563
conova	-11564
design	-11565
ecause	-11566
encing	-11567
ensual	-11568
ermuda	-11569
ertise	-11570
ervice	-11571
hereto	-11572
iagara	-11573
icklas	-11574
iluted	-11575
iscell	-11576
isiana	-11577
issile	-11578
issued	-11579
istrar	-11580
itiwas	-11581
lewood	-11582
locate	-11583
matrin	-11584
mitted	-11585
naires	-11586
onings	-11587
ornier	-11588
ornton	-11589
orters	-11590
otheby	-11591
ournal	-11592
ralian	-11593
rating	-11594
rivolo	-11595
rorism	-11596
sesian	-11597
sheets	-11598
teenth	-11599
CM	-11600
CP	-11601
Or	-11602
EDI	-11603
Yxx	-11604
isk	-11605
lue	-11606
raZ	-11607
▁SL	-11608
▁WP	-11609
BTED	-11610
ofar	-11611
orum	-11612
osed	-11613
▁9.4	-11614
▁AML	-11615
▁COR	-11616
▁DER	-11617
▁Gru	-11618
▁Her	-11619
▁Hol	-11620
▁LAT	-11621
▁Lou	-11622
▁SLP	-11623
▁UCP	-11624
▁WPP	-11625
▁lar	-11626
Event	-11627
aysia	-11628
endum	-11629
gates	-11630
raZen	-11631
▁9.15	-11632
▁FYxx	-11633
▁Foun	-11634
▁Grub	-11635
▁Holt	-11636
▁MEAN	-11637
▁Pres	-11638
▁WPPI	-11639
▁blue	-11640
▁cell	-11641
▁jure	-11642
▁sake	-11643
▁slan	-11644
fering	-11645
invest	-11646
rences	-11647
tellus	-11648
tigate	-11649
uccess	-11650
vening	-11651
venues	-11652
▁$0.01	-11653
▁$0.60	-11654
▁$0.66	-11655
▁(30%)	-11656
▁(65%)	-11657
▁1.6.3	-11658
▁10.06	-11659
▁10.07	-11660
▁10.1)	-11661
▁10.16	-11662
▁10.22	-11663
▁11.01	-11664
▁11.02	-11665
▁11.04	-11666
▁11.08	-11667
▁11.16	-11668
▁12.1,	-11669
▁12.19	-11670
▁12:01	-11671
▁1940,	-11672
▁1964,	-11673
▁1967,	-11674
▁1974,	-11675
▁1997.	-11676
▁2.01,	-11677
▁2.06(	-11678
▁2.11(	-11679
▁2.14,	-11680
▁2.21(	-11681
▁2016)	-11682
▁2017;	-11683
▁2018,	-11684
▁2021.	-11685
▁4.01(	-11686
▁4.06(	-11687
▁4.07(	-11688
▁4.1.5	-11689
▁4.1.9	-11690
▁4.10,	-11691
▁4.2),	-11692
▁4.3),	-11693
▁4041(	-11694
▁4200,	-11695
▁5.1.1	-11696
▁6.03.	-11697
▁6.04(	-11698
▁6.05(	-11699
."	-11700
IZ	-11701
IRE	-11702
mod	-11703
▁85	-11704
▁Sn	-11705
Bond	-11706
HERE	-11707
foot	-11708
oing	-11709
sory	-11710
suit	-11711
▁2.0	-11712
▁Ber	-11713
▁Sny	-11714
▁jus	-11715
▁led	-11716
▁tap	-11717
arden	-11718
doing	-11719
eeper	-11720
final	-11721
mally	-11722
mited	-11723
mpire	-11724
preme	-11725
titor	-11726
▁1.1(	-11727
▁8.1,	-11728
▁Hand	-11729
▁Hour	-11730
▁Repp	-11731
▁Stan	-11732
▁Star	-11733
▁Stri	-11734
▁Summ	-11735
▁Wach	-11736
▁aged	-11737
▁broa	-11738
▁side	-11739
▁subc	-11740
▁§166	-11741
atform	-11742
ically	-11743
igfoot	-11744
minate	-11745
orsers	-11746
ouston	-11747
titled	-11748
ulsory	-11749
▁10.4,	-11750
▁2014,	-11751
▁6.05)	-11752
▁6.05.	-11753
▁6.1.(	-11754
▁6223(	-11755
▁7.10.	-11756
▁77002	-11757
▁8.02,	-11758
▁9.01(	-11759
▁9.13(	-11760
▁9.13,	-11761
▁ADVER	-11762
▁AWARD	-11763
▁Ameri	-11764
▁Andre	-11765
▁BANKS	-11766
▁BELOW	-11767
▁Basel	-11768
▁Beach	-11769
▁Bipar	-11770
▁Brett	-11771
▁Coach	-11772
▁Compe	-11773
▁Counc	-11774
▁Detro	-11775
▁Dusan	-11776
▁EQUIT	-11777
▁Email	-11778
▁FFDCA	-11779
▁FILED	-11780
▁Forfe	-11781
▁Grubb	-11782
▁Guide	-11783
▁Heart	-11784
▁Heavy	-11785
▁Henne	-11786
▁Holly	-11787
▁INCUR	-11788
▁IRCTC	-11789
▁Incen	-11790
▁Intel	-11791
▁JUDIC	-11792
▁Judge	-11793
▁Kurth	-11794
▁Levin	-11795
▁Lewis	-11796
▁Local	-11797
▁Medic	-11798
▁Merch	-11799
7)	-11800
GCL	-11801
THE	-11802
odd	-11803
oto	-11804
owa	-11805
top	-11806
▁55	-11807
▁MT	-11808
▁VA	-11809
SIGN	-11810
cili	-11811
citi	-11812
emed	-11813
owoc	-11814
work	-11815
▁$48	-11816
▁102	-11817
▁12.	-11818
▁Ara	-11819
▁Eth	-11820
▁HCP	-11821
▁lik	-11822
▁wil	-11823
essel	-11824
ipped	-11825
onest	-11826
ordon	-11827
▁13.2	-11828
▁16.2	-11829
▁2.02	-11830
▁2.4(	-11831
▁DGCL	-11832
▁Dire	-11833
▁Dodd	-11834
▁Home	-11835
▁Iowa	-11836
▁amic	-11837
▁hall	-11838
▁lawy	-11839
▁pend	-11840
acific	-11841
istory	-11842
itowoc	-11843
▁11.03	-11844
▁Brown	-11845
▁ESIGN	-11846
▁FLBCA	-11847
▁Month	-11848
▁NOTES	-11849
▁Names	-11850
▁OTCQB	-11851
▁OUTSI	-11852
▁Outer	-11853
▁Paper	-11854
▁Parib	-11855
▁Place	-11856
▁Power	-11857
▁RESOL	-11858
▁SEVER	-11859
▁SIGNS	-11860
▁SOUND	-11861
▁SUFFE	-11862
▁SUITS	-11863
▁SUPPL	-11864
▁SWING	-11865
▁THESE	-11866
▁THOSE	-11867
▁TRIBE	-11868
▁Track	-11869
▁Vital	-11870
▁World	-11871
▁XenoP	-11872
▁aggre	-11873
▁bears	-11874
▁brett	-11875
▁bylaw	-11876
▁cards	-11877
▁cited	-11878
▁disks	-11879
▁excul	-11880
▁expan	-11881
▁extre	-11882
▁facto	-11883
▁fewer	-11884
▁great	-11885
▁hands	-11886
▁hotel	-11887
▁human	-11888
▁inser	-11889
▁keeps	-11890
▁lines	-11891
▁malpr	-11892
▁often	-11893
▁photo	-11894
▁punct	-11895
▁rated	-11896
▁ready	-11897
▁ripen	-11898
▁staff	-11899
3;	-11900
Is	-11901
.70	-11902
BUT	-11903
Fus	-11904
OLL	-11905
Ret	-11906
SED	-11907
Set	-11908
eem	-11909
ids	-11910
usp	-11911
▁NR	-11912
▁RC	-11913
▁SR	-11914
▁Up	-11915
▁ed	-11916
▁ri	-11917
ADEA	-11918
Issu	-11919
JUDI	-11920
Sett	-11921
hion	-11922
mely	-11923
udor	-11924
▁3.7	-11925
▁9,0	-11926
▁Ban	-11927
▁HSM	-11928
▁NRF	-11929
▁PIC	-11930
▁Phi	-11931
▁enh	-11932
▁reb	-11933
▁war	-11934
▁“19	-11935
apore	-11936
ilder	-11937
itron	-11938
licts	-11939
▁(18)	-11940
▁(2%)	-11941
▁(201	-11942
▁2.20	-11943
▁4.24	-11944
▁ATTE	-11945
▁Exit	-11946
▁FOLL	-11947
▁Give	-11948
▁MIPA	-11949
▁NRFC	-11950
▁RCRA	-11951
▁Upst	-11952
▁extr	-11953
▁lock	-11954
▁rehe	-11955
Fusion	-11956
Return	-11957
ashion	-11958
▁$1.70	-11959
▁(201)	-11960
▁(423)	-11961
▁15.16	-11962
▁3(42)	-11963
▁46,22	-11964
▁ADVIS	-11965
▁FUNDA	-11966
▁Tudor	-11967
▁Wound	-11968
▁spent	-11969
▁stand	-11970
▁start	-11971
▁study	-11972
▁sworn	-11973
▁tapes	-11974
▁tenor	-11975
▁tions	-11976
▁tried	-11977
▁twice	-11978
▁undue	-11979
▁unexp	-11980
▁unmod	-11981
▁usury	-11982
▁vests	-11983
▁visit	-11984
▁waste	-11985
▁§355(	-11986
00,000,	-11987
182,111	-11988
333,332	-11989
358,500	-11990
40,000,	-11991
473,143	-11992
5,000).	-11993
550,000	-11994
97-5695	-11995
ABILITY	-11996
AINTIFF	-11997
Accrued	-11998
Advisor	-11999
-6	-12000
6(	-12001
7%	-12002
73	-12003
NP	-12004
§)	-12005
Aff	-12006
ahi	-12007
lub	-12008
ros	-12009
▁71	-12010
▁98	-12011
▁9;	-12012
▁BA	-12013
▁Ob	-12014
▁Ra	-12015
▁em	-12016
▁ov	-12017
401,	-12018
DEMN	-12019
June	-12020
exec	-12021
imal	-12022
onic	-12023
ptop	-12024
tity	-12025
▁(§)	-12026
▁390	-12027
▁BNP	-12028
▁Lau	-12029
▁ben	-12030
▁hts	-12031
ahill	-12032
erman	-12033
osing	-12034
rosen	-12035
sumed	-12036
▁1.01	-12037
▁8.17	-12038
▁Poor	-12039
▁Rati	-12040
▁Rock	-12041
▁club	-12042
▁maga	-12043
▁owes	-12044
▁§121	-12045
40.205	-12046
INDEMN	-12047
adline	-12048
heless	-12049
utical	-12050
▁10.1,	-12051
▁3.01)	-12052
▁6.03(	-12053
▁7.16(	-12054
▁FIFTH	-12055
▁Ratio	-12056
▁eight	-12057
▁imped	-12058
▁magaz	-12059
▁parti	-12060
▁shelf	-12061
DENTURE	-12062
Develop	-12063
Dispute	-12064
FFICULT	-12065
FICIARY	-12066
General	-12067
ISPUTED	-12068
LICATED	-12069
Miscell	-12070
Missile	-12071
Notices	-12072
PENDENT	-12073
Success	-12074
TIMMUNE	-12075
TINGENT	-12076
UNITIVE	-12077
WITHOUT	-12078
ardless	-12079
chapter	-12080
claimed	-12081
clauses	-12082
compass	-12083
control	-12084
dealers	-12085
derdale	-12086
dership	-12087
endices	-12088
gesting	-12089
grieved	-12090
ifiable	-12091
ificant	-12092
ighteen	-12093
ineness	-12094
iostage	-12095
itoring	-12096
konings	-12097
leventh	-12098
liances	-12099
5.	-12100
8)	-12101
91	-12102
PE	-12103
.),	-12104
eca	-12105
pur	-12106
von	-12107
▁([	-12108
▁PV	-12109
▁SB	-12110
▁ns	-12111
JAMS	-12112
Rest	-12113
icit	-12114
rier	-12115
ster	-12116
▁299	-12117
▁5.0	-12118
▁Ast	-12119
▁ROW	-12120
▁Sul	-12121
▁Whe	-12122
▁bri	-12123
▁say	-12124
▁und	-12125
alled	-12126
tient	-12127
utive	-12128
▁Avon	-12129
▁Page	-12130
▁YOUR	-12131
▁actu	-12132
▁live	-12133
called	-12134
follow	-12135
perval	-12136
▁5.09(	-12137
▁5.09,	-12138
▁Edgar	-12139
▁Plant	-12140
▁abuse	-12141
▁codes	-12142
▁const	-12143
▁crude	-12144
▁gains	-12145
Houston	-12146
alegals	-12147
feiting	-12148
linical	-12149
looking	-12150
minimum	-12151
officer	-12152
onestly	-12153
ortgage	-12154
ounding	-12155
parties	-12156
pervalu	-12157
raining	-12158
ributed	-12159
section	-12160
secured	-12161
success	-12162
terling	-12163
tifying	-12164
ulating	-12165
undable	-12166
viction	-12167
volving	-12168
▁$2,500	-12169
▁$7,500	-12170
▁10.6.1	-12171
▁10.6.2	-12172
▁10007,	-12173
▁11.02(	-12174
▁13224,	-12175
▁14.6.4	-12176
▁2.05),	-12177
▁2016-3	-12178
▁28602,	-12179
▁3.11.3	-12180
▁37067,	-12181
▁4.4.1(	-12182
▁60603,	-12183
▁60606,	-12184
▁8.14.(	-12185
▁8.3.3(	-12186
▁9.1.12	-12187
▁AUTHOR	-12188
▁Abrams	-12189
▁Agency	-12190
▁Andrew	-12191
▁Avison	-12192
▁Bridge	-12193
▁Brushy	-12194
▁CANADA	-12195
▁CANNOT	-12196
▁CHANGE	-12197
▁Cahill	-12198
▁Citron	-12199
RL	-12200
St	-12201
ILT	-12202
Sur	-12203
]),	-12204
ask	-12205
cho	-12206
who	-12207
yon	-12208
”);	-12209
▁HM	-12210
▁So	-12211
▁Sw	-12212
aska	-12213
lign	-12214
rist	-12215
rone	-12216
sing	-12217
tice	-12218
▁Bus	-12219
▁Cen	-12220
▁DRL	-12221
▁Ell	-12222
▁Log	-12223
▁dat	-12224
▁ere	-12225
▁fre	-12226
▁men	-12227
▁nst	-12228
Agent	-12229
Arbit	-12230
DERED	-12231
enyon	-12232
tally	-12233
tiary	-12234
▁1.3(	-12235
▁144(	-12236
▁1446	-12237
▁21),	-12238
▁3.2(	-12239
▁Land	-12240
▁NILT	-12241
▁Redu	-12242
▁THEM	-12243
▁Tenz	-12244
▁noon	-12245
agenix	-12246
govern	-12247
lender	-12248
▁(716)	-12249
▁10.2(	-12250
▁Cenac	-12251
▁Daily	-12252
▁Forty	-12253
▁Lucos	-12254
▁Remed	-12255
▁align	-12256
▁indul	-12257
▁prime	-12258
▁spous	-12259
▁swaps	-12260
▁§2601	-12261
ATIONAL	-12262
veyance	-12263
▁CLAUSE	-12264
▁Christ	-12265
▁Clause	-12266
▁Closed	-12267
▁DAMAGE	-12268
▁Dealer	-12269
▁Eighty	-12270
▁Ending	-12271
▁Establ	-12272
▁Ethics	-12273
▁Expend	-12274
▁Fenner	-12275
▁Fields	-12276
▁Garden	-12277
▁Gordon	-12278
▁HEREON	-12279
▁Harris	-12280
▁Hazard	-12281
▁Hennep	-12282
▁HoldCo	-12283
▁Hudson	-12284
▁ISSUES	-12285
▁Intent	-12286
▁Kelley	-12287
▁Knight	-12288
▁LEASED	-12289
▁LIABLE	-12290
▁LIKELY	-12291
▁Lazard	-12292
▁Legacy	-12293
▁London	-12294
▁Lucent	-12295
▁MAKING	-12296
▁MODIFY	-12297
▁Motion	-12298
▁NASDAQ	-12299
04	-12300
9-	-12301
Ne	-12302
ij	-12303
lu	-12304
For	-12305
IDE	-12306
Man	-12307
Non	-12308
Pre	-12309
Rec	-12310
itt	-12311
ria	-12312
”):	-12313
▁61	-12314
▁LP	-12315
▁pm	-12316
Care	-12317
Form	-12318
emil	-12319
▁($3	-12320
▁(10	-12321
▁2.6	-12322
▁3.8	-12323
▁End	-12324
▁FEE	-12325
▁SSC	-12326
▁SVP	-12327
▁iii	-12328
▁red	-12329
▁tal	-12330
focus	-12331
iding	-12332
insic	-12333
lines	-12334
▁$.10	-12335
▁12.2	-12336
▁4042	-12337
▁715:	-12338
▁Roth	-12339
▁adam	-12340
▁dues	-12341
▁happ	-12342
▁mess	-12343
▁talk	-12344
▁wish	-12345
▁zone	-12346
ATIVES	-12347
instru	-12348
▁10.7,	-12349
▁2000,	-12350
▁Basis	-12351
▁INFOR	-12352
▁REVOL	-12353
▁13.03(	-12354
▁AGREED	-12355
▁Earned	-12356
▁MODIFI	-12357
▁Newell	-12358
▁Orange	-12359
▁Oxford	-12360
▁PERIOD	-12361
▁PRECED	-12362
▁PROCED	-12363
▁PVRSUs	-12364
▁Payoff	-12365
▁Perman	-12366
▁Picker	-12367
▁Prohib	-12368
▁RAMIFI	-12369
▁RETURN	-12370
▁Redeem	-12371
▁Resign	-12372
▁Rodney	-12373
▁SATISF	-12374
▁SELLER	-12375
▁STIPUL	-12376
▁Secret	-12377
▁Snyder	-12378
▁Spinco	-12379
▁Spread	-12380
▁Status	-12381
▁Studio	-12382
▁TAKING	-12383
▁Taxing	-12384
▁Travis	-12385
▁Trusts	-12386
▁VERBAL	-12387
▁Vancou	-12388
▁Walker	-12389
▁Warren	-12390
▁Worker	-12391
▁admiss	-12392
▁adopts	-12393
▁always	-12394
▁barred	-12395
▁begins	-12396
▁belief	-12397
▁bureau	-12398
▁capped	-12399
12	-12400
3%	-12401
62	-12402
At	-12403
BP	-12404
Un	-12405
hu	-12406
mc	-12407
rs	-12408
”;	-12409
-25	-12410
ALE	-12411
ALL	-12412
cor	-12413
▁#3	-12414
acqu	-12415
seau	-12416
▁6.8	-12417
▁75%	-12418
▁8.4	-12419
▁9.0	-12420
▁MER	-12421
▁Sel	-12422
2,500	-12423
OLOGY	-12424
mples	-12425
reate	-12426
▁8.11	-12427
▁Adam	-12428
▁Drip	-12429
▁Fast	-12430
▁NOTI	-12431
▁SALE	-12432
▁leas	-12433
alling	-12434
arized	-12435
erally	-12436
icious	-12437
pation	-12438
recogn	-12439
▁2.11,	-12440
▁Oncor	-12441
▁§1320	-12442
ayments	-12443
inguish	-12444
service	-12445
ulation	-12446
▁11.01(	-12447
▁ADJUDI	-12448
▁Comple	-12449
▁Mailed	-12450
▁Pierce	-12451
▁REMAIN	-12452
▁centre	-12453
▁client	-12454
▁closes	-12455
▁delays	-12456
▁denial	-12457
▁depart	-12458
▁depend	-12459
▁embezz	-12460
▁embodi	-12461
▁evenly	-12462
▁excuse	-12463
▁groups	-12464
▁guests	-12465
▁immune	-12466
▁impede	-12467
▁judged	-12468
▁junior	-12469
▁keeper	-12470
▁laptop	-12471
▁lessee	-12472
▁makers	-12473
▁mcenac	-12474
▁merges	-12475
▁misuse	-12476
▁negate	-12477
▁outlet	-12478
▁passed	-12479
▁payoff	-12480
▁pictor	-12481
▁rebate	-12482
▁recons	-12483
▁reform	-12484
▁remise	-12485
▁reveal	-12486
▁serves	-12487
▁spread	-12488
▁square	-12489
▁stamps	-12490
▁surviv	-12491
▁tested	-12492
▁tiered	-12493
▁trials	-12494
▁turned	-12495
▁unanim	-12496
▁unduly	-12497
▁verbal	-12498
▁verify	-12499
09	-12500
ND	-12501
Se	-12502
Th	-12503
sc	-12504
uc	-12505
▁NA	-12506
drag	-12507
fety	-12508
ious	-12509
▁Opp	-12510
Loans	-12511
▁5.04	-12512
▁6.2,	-12513
▁Food	-12514
▁Lang	-12515
▁MOVE	-12516
▁Opco	-12517
▁Vend	-12518
▁goal	-12519
▁quit	-12520
porter	-12521
▁Force	-12522
▁Older	-12523
▁Tribe	-12524
▁Strike	-12525
▁leaves	-12526
▁viewed	-12527
▁voided	-12528
▁wilful	-12529
BORROWER	-12530
BTEDNESS	-12531
Domestic	-12532
Interest	-12533
Landlord	-12534
MPLAINTS	-12535
Particip	-12536
QUIDATED	-12537
ROPRIATE	-12538
Survival	-12539
absolute	-12540
angibles	-12541
arbitral	-12542
assuming	-12543
biostage	-12544
chalmers	-12545
covenant	-12546
delivery	-12547
docusign	-12548
etheless	-12549
followed	-12550
formable	-12551
iqueness	-12552
itations	-12553
itiwaste	-12554
judicial	-12555
junctive	-12556
mpanying	-12557
ological	-12558
opardize	-12559
ponsible	-12560
pursuant	-12561
raZeneca	-12562
rinklers	-12563
rivolous	-12564
roughout	-12565
▁$0.001,	-12566
▁$25,000	-12567
▁($[**])	-12568
▁10.1.13	-12569
▁212-658	-12570
▁277/480	-12571
▁344,993	-12572
▁37,860,	-12573
▁46:15-7	-12574
▁541-550	-12575
▁ADVERSE	-12576
▁APPEALS	-12577
▁Affairs	-12578
▁Alabama	-12579
▁Andrews	-12580
▁Appeals	-12581
▁Apprais	-12582
▁Atlanta	-12583
▁Awarded	-12584
▁BREACHE	-12585
▁Bancorp	-12586
▁Barbara	-12587
▁Bermuda	-12588
▁Bigfoot	-12589
▁Biomark	-12590
▁Biotech	-12591
▁Blocked	-12592
▁Brixmor	-12593
▁CELATOR	-12594
▁Certain	-12595
▁Changes	-12596
▁Charges	-12597
▁Complex	-12598
▁Conduit	-12599
▁Conting	-12600
▁Council	-12601
▁Customs	-12602
▁DEFECTS	-12603
▁DEMANDS	-12604
▁DEPOSIT	-12605
▁DISCUSS	-12606
▁Damages	-12607
▁Deficit	-12608
▁Detroit	-12609
▁EBITDAR	-12610
▁EXTENDS	-12611
▁England	-12612
▁Expense	-12613
▁HOWEVER	-12614
▁Hartman	-12615
▁Hickory	-12616
▁IMPOSED	-12617
▁INDIVID	-12618
▁INVOLVE	-12619
▁JOINDER	-12620
▁Jackson	-12621
▁Jeffrey	-12622
▁Jointly	-12623
▁KNOWING	-12624
▁LAWSUIT	-12625
▁Lawsuit	-12626
▁Lazarov	-12627
▁Loading	-12628
▁Lucosky	-12629
▁MARKETS	-12630
▁MIRAMAR	-12631
▁Madison	-12632
▁Majeure	-12633
▁MetLife	-12634
▁Monique	-12635
▁NULLIFY	-12636
▁Newmark	-12637
▁Niagara	-12638
▁OPERATE	-12639
▁OUTSIDE	-12640
▁Offeror	-12641
▁Outside	-12642
▁PARTIAL	-12643
▁PARTNER	-12644
▁PLEDGOR	-12645
▁POSTAGE	-12646
▁PREPAID	-12647
▁PREVENT	-12648
▁PROFITS	-12649
▁Paribas	-12650
▁Pending	-12651
▁Periods	-12652
▁Phoenix	-12653
▁Process	-12654
▁RECONVE	-12655
▁REQUEST	-12656
▁Ratable	-12657
▁Reindel	-12658
▁Reppond	-12659
▁SEEKING	-12660
▁SIGNING	-12661
▁STATUTE	-12662
▁Simpson	-12663
▁Sotheby	-12664
▁Stanley	-12665
▁Summary	-12666
▁Supreme	-12667
▁TARRANT	-12668
▁Targets	-12669
▁Tenzing	-12670
▁Thermon	-12671
▁Tornier	-12672
▁Trustor	-12673
▁Umatrin	-12674
▁WARRANT	-12675
▁Whether	-12676
▁Writing	-12677
▁advises	-12678
▁asserts	-12679
▁auditor	-12680
▁binders	-12681
▁borough	-12682
▁broader	-12683
▁builder	-12684
▁central	-12685
▁chooses	-12686
▁compens	-12687
▁compete	-12688
▁conserv	-12689
▁copying	-12690
▁counted	-12691
▁demonst	-12692
▁deprive	-12693
▁environ	-12694
▁ethical	-12695
▁existed	-12696
▁expects	-12697
▁exposed	-12698
▁failing	-12699
▁falling	-12700
▁fashion	-12701
▁footage	-12702
▁governs	-12703
▁handled	-12704
▁history	-12705
▁identif	-12706
▁injured	-12707
▁inquire	-12708
▁insofar	-12709
▁issuers	-12710
▁larceny	-12711
▁lawyers	-12712
▁learned	-12713
▁leaving	-12714
▁legible	-12715
▁manners	-12716
▁mention	-12717
▁minimis	-12718
▁minutes	-12719
▁notific	-12720
▁outcome	-12721
▁overall	-12722
▁payouts	-12723
▁phantom	-12724
▁placing	-12725
▁pledgee	-12726
▁prerequ	-12727
▁printed	-12728
▁pursued	-12729
▁ranging	-12730
▁ratings	-12731
▁realize	-12732
▁recited	-12733
▁redress	-12734
▁reduces	-12735
▁refunds	-12736
▁remakes	-12737
▁remised	-12738
▁removed	-12739
▁revived	-12740
▁secrecy	-12741
▁setoffs	-12742
▁seventh	-12743
▁seventy	-12744
▁shipped	-12745
▁slander	-12746
▁slogans	-12747
▁sponsor	-12748
▁studies	-12749
▁subpart	-12750
▁surface	-12751
▁surplus	-12752
▁totally	-12753
▁turning	-12754
▁vacated	-12755
▁vendors	-12756
▁version	-12757
▁wording	-12758
10.3-101,	-12759
50,000.00	-12760
Actuarial	-12761
Agreement	-12762
ECHNOLOGY	-12763
Executive	-12764
President	-12765
Qualified	-12766
Specified	-12767
applicant	-12768
ciliation	-12769
competing	-12770
corporate	-12771
currently	-12772
dependent	-12773
fiduciary	-12774
greements	-12775
incentive	-12776
successor	-12777
terrorism	-12778
▁$25,000.	-12779
▁$250,000	-12780
▁$360,000	-12781
▁$800,000	-12782
▁797-5695	-12783
▁ACTUALLY	-12784
▁ARRANGER	-12785
▁Absolute	-12786
▁Accepted	-12787
▁Advisors	-12788
▁Advisory	-12789
▁Airborne	-12790
▁Attached	-12791
▁BRINGING	-12792
▁CHOOSING	-12793
▁CONTINUE	-12794
▁CannaSys	-12795
▁Chalmers	-12796
▁Clarkson	-12797
▁Commonly	-12798
▁Coverage	-12799
▁DISPUTED	-12800
▁Deadline	-12801
▁Decision	-12802
▁Dragging	-12803
▁EMPLOYER	-12804
▁Economic	-12805
▁Elective	-12806
▁Eleventh	-12807
▁Entellus	-12808
▁Equities	-12809
▁Exterior	-12810
▁Fortress	-12811
▁Founders	-12812
▁Goodwill	-12813
▁Handbook	-12814
▁Hennepin	-12815
▁IMPROPER	-12816
▁Included	-12817
▁Internet	-12818
▁Isconova	-12819
▁JUDICIAL	-12820
▁Lawrence	-12821
▁Malaysia	-12822
▁NATIONAL	-12823
▁Nebraska	-12824
▁Notified	-12825
▁OFFICERS	-12826
▁PRECLUDE	-12827
▁PRODUCTS	-12828
▁PUNITIVE	-12829
▁PURPOSES	-12830
▁Personal	-12831
▁Petition	-12832
▁Position	-12833
▁ProSight	-12834
▁Recitals	-12835
▁Refinery	-12836
▁Registry	-12837
▁Reimburs	-12838
▁Releasee	-12839
▁Resource	-12840
▁SELECTED	-12841
▁SOUNDING	-12842
▁SUFFERED	-12843
▁SUPERSED	-12844
▁Superior	-12845
▁Supplied	-12846
▁Telecopy	-12847
▁Terminal	-12848
▁Thornton	-12849
▁Upstream	-12850
▁Warranty	-12851
▁Williams	-12852
▁XenoPort	-12853
▁accorded	-12854
▁actively	-12855
▁adjudged	-12856
▁admitted	-12857
▁adopting	-12858
▁altering	-12859
▁anywhere	-12860
▁attained	-12861
▁auditing	-12862
▁balances	-12863
▁biweekly	-12864
▁breakage	-12865
▁changing	-12866
▁choosing	-12867
▁closings	-12868
▁competed	-12869
▁concerns	-12870
▁conducts	-12871
▁critical	-12872
▁deleting	-12873
▁deterior	-12874
▁eighteen	-12875
▁emailing	-12876
▁embodied	-12877
▁empowers	-12878
▁enabling	-12879
▁energies	-12880
▁estoppel	-12881
▁eventual	-12882
▁eviction	-12883
▁expended	-12884
▁expiring	-12885
▁failures	-12886
▁handbook	-12887
▁honestly	-12888
▁immunity	-12889
▁imposing	-12890
▁inaction	-12891
▁informal	-12892
▁investor	-12893
▁kathleen	-12894
▁labeling	-12895
▁leasable	-12896
▁likeness	-12897
▁modifies	-12898
▁normally	-12899
▁occupant	-12900
▁operates	-12901
▁opposite	-12902
▁overcome	-12903
▁overhead	-12904
▁ovisions	-12905
▁paycheck	-12906
▁pendency	-12907
▁pharmace	-12908
▁planning	-12909
▁postmark	-12910
▁postpaid	-12911
▁prevails	-12912
▁prevents	-12913
▁procured	-12914
▁projects	-12915
▁quantity	-12916
▁reassign	-12917
▁recreate	-12918
▁redeemed	-12919
▁registry	-12920
▁relieved	-12921
▁relocate	-12922
▁remitted	-12923
▁remotely	-12924
▁restates	-12925
▁restored	-12926
▁revenues	-12927
▁rightful	-12928
▁salaries	-12929
▁searches	-12930
▁servicer	-12931
▁shipment	-12932
▁sixtieth	-12933
▁solvency	-12934
▁sounding	-12935
▁spending	-12936
▁starting	-12937
▁strategy	-12938
▁superior	-12939
▁supplier	-12940
▁survives	-12941
▁tendered	-12942
▁ultimate	-12943
▁unambigu	-12944
▁unissued	-12945
▁variable	-12946
▁variants	-12947
▁vouchers	-12948
▁§440.205	-12949
25,000,000	-12950
50,000.00)	-12951
Expiration	-12952
FRINGEMENT	-12953
Successive	-12954
Syndicated	-12955
changeably	-12956
investment	-12957
licensable	-12958
occurrence	-12959
prohibited	-12960
recognized	-12961
refundable	-12962
rosenbluth	-12963
separation	-12964
▁$250,000,	-12965
▁$3,000.00	-12966
▁$750,000,	-12967
▁1.6011-4(	-12968
▁2,000,000	-12969
▁5,473,143	-12970
▁803-0621,	-12971
▁9,050,000	-12972
▁ADDRESSED	-12973
▁Adjuvants	-12974
▁Automated	-12975
▁CERTIFIED	-12976
▁CONSULTED	-12977
▁Candidate	-12978
▁Citiwaste	-12979
▁Conflicts	-12980
▁DEFENDANT	-12981
▁DIFFICULT	-12982
▁DIRECTORS	-12983
▁Departure	-12984
▁EQUITABLE	-12985
▁EVIDENCED	-12986
▁Englewood	-12987
▁FOLLOWING	-12988
▁Fiduciary	-12989
▁Generally	-12990
▁GlobalMed	-12991
▁Heartland	-12992
▁INDEMNITY	-12993
▁INDENTURE	-12994
▁INTERESTS	-12995
▁JUDGMENTS	-12996
▁Leasehold	-12997
▁Licensors	-12998
▁Louisiana	-12999
▁MANITOWOC	-13000
▁Manitowoc	-13001
▁Merchants	-13002
▁Mortgages	-13003
▁Nationals	-13004
▁OCCURRING	-13005
▁OMISSIONS	-13006
▁Obligated	-13007
▁PLAINTIFF	-13008
▁Permanent	-13009
▁Pickering	-13010
▁Precision	-13011
▁Providers	-13012
▁REVIEWING	-13013
▁REVOLVING	-13014
▁Receiving	-13015
▁Registrar	-13016
▁SWINGLINE	-13017
▁Singapore	-13018
▁Supervalu	-13019
▁THEREFORE	-13020
▁Unclaimed	-13021
▁Unmatured	-13022
▁VOLUNTARY	-13023
▁Valuation	-13024
▁Vancouver	-13025
▁VitalCare	-13026
▁actuaries	-13027
▁affidavit	-13028
▁aggrieved	-13029
▁allegedly	-13030
▁amortized	-13031
▁antitrust	-13032
▁apportion	-13033
▁approving	-13034
▁associate	-13035
▁attendant	-13036
▁buildings	-13037
▁canceling	-13038
▁clearance	-13039
▁complaint	-13040
▁component	-13041
▁concluded	-13042
▁conferral	-13043
▁constable	-13044
▁countries	-13045
▁couriered	-13046
▁crediting	-13047
▁criticize	-13048
▁deadlines	-13049
▁decreases	-13050
▁defendant	-13051
▁deference	-13052
▁delegates	-13053
▁deletions	-13054
▁dependent	-13055
▁detailing	-13056
▁emotional	-13057
▁employing	-13058
▁encompass	-13059
▁endorsers	-13060
▁engineers	-13061
▁estimated	-13062
▁evidences	-13063
▁examiners	-13064
▁exhausted	-13065
▁expertise	-13066
▁extremely	-13067
▁extrinsic	-13068
▁fifteenth	-13069
▁furniture	-13070
▁happening	-13071
▁histories	-13072
▁important	-13073
▁indicates	-13074
▁integrity	-13075
▁intervals	-13076
▁issuances	-13077
▁litigated	-13078
▁malicious	-13079
▁narrative	-13080
▁nonexempt	-13081
▁numerical	-13082
▁offending	-13083
▁offerings	-13084
▁operators	-13085
▁packaging	-13086
▁perceived	-13087
▁pictorial	-13088
▁plaintiff	-13089
▁precluded	-13090
▁precludes	-13091
▁president	-13092
▁processed	-13093
▁prohibits	-13094
▁promotion	-13095
▁publicize	-13096
▁qualifier	-13097
▁recommend	-13098
▁rehearing	-13099
▁replacing	-13100
▁resisting	-13101
▁retaining	-13102
▁rewritten	-13103
▁secondary	-13104
▁situation	-13105
▁stipulate	-13106
▁strategic	-13107
▁subclause	-13108
▁substanti	-13109
▁summaries	-13110
▁tombstone	-13111
▁typically	-13112
▁underpaid	-13113
▁unexpired	-13114
▁uninsured	-13115
▁unlimited	-13116
▁unsecured	-13117
▁vacations	-13118
▁variances	-13119
▁vehicular	-13120
▁withdrawn	-13121
▁witnesses	-13122
▁“$230,000	-13123
Arbitration	-13124
Definitions	-13125
INDEMNIFIED	-13126
Indemnified	-13127
Information	-13128
Registrable	-13129
appropriate	-13130
consecutive	-13131
▁$1,500,000	-13132
▁$2,500,000	-13133
▁18,358,500	-13134
▁37,860,648	-13135
▁46,222,204	-13136
▁ADDITIONAL	-13137
▁Australian	-13138
▁Bipartisan	-13139
▁COMPLAINTS	-13140
▁CONTINGENT	-13141
▁CONTROLLED	-13142
▁Commencing	-13143
▁Compliance	-13144
▁Continuing	-13145
▁Controller	-13146
▁Debentures	-13147
▁Extraction	-13148
▁Facsimiles	-13149
▁Forfeiture	-13150
▁Franchises	-13151
▁GUARANTORS	-13152
▁Governance	-13153
▁Incentives	-13154
▁Lauderdale	-13155
▁Laundering	-13156
▁Monitoring	-13157
▁PREVAILING	-13158
▁REPRESENTS	-13159
▁Reasonable	-13160
▁Regardless	-13161
▁Relocation	-13162
▁Retraining	-13163
▁Rosenbluth	-13164
▁SEPARATELY	-13165
▁SUFFICIENT	-13166
▁SUPPLEMENT	-13167
▁Sponsoring	-13168
▁Systagenix	-13169
▁Throughout	-13170
▁UNDISPUTED	-13171
▁Withdrawal	-13172
▁actionable	-13173
▁addressing	-13174
▁adjudicate	-13175
▁admissible	-13176
▁aggregated	-13177
▁appendices	-13178
▁appraisers	-13179
▁arbitrable	-13180
▁attributed	-13181
▁bargaining	-13182
▁burdensome	-13183
▁compatible	-13184
▁compelling	-13185
▁completing	-13186
▁compulsory	-13187
▁consequent	-13188
▁continuity	-13189
▁continuous	-13190
▁coordinate	-13191
▁defaulting	-13192
▁departures	-13193
▁disclaimed	-13194
▁eliminated	-13195
▁encouraged	-13196
▁encourages	-13197
▁evaluation	-13198
▁exhausting	-13199
▁facsimiles	-13200
▁foundation	-13201
▁immunities	-13202
▁indication	-13203
▁industries	-13204
▁jeopardize	-13205
▁leadership	-13206
▁litigating	-13207
▁localities	-13208
▁manifested	-13209
▁mediations	-13210
▁mortgagees	-13211
▁multiplied	-13212
▁negatively	-13213
▁newspapers	-13214
▁nomination	-13215
▁paralegals	-13216
▁projection	-13217
▁proscribed	-13218
▁protective	-13219
▁punctually	-13220
▁reaffirmed	-13221
▁reckonings	-13222
▁refundable	-13223
▁relinquish	-13224
▁reproduces	-13225
▁soliciting	-13226
▁sprinklers	-13227
▁standpoint	-13228
▁suggesting	-13229
▁techniques	-13230
▁telephonic	-13231
▁triggering	-13232
▁unaffected	-13233
▁unmodified	-13234
▁wrongdoing	-13235
Organization	-13236
governmental	-13237
▁$1,000,000,	-13238
▁$200,000.00	-13239
▁$5,000,000,	-13240
▁100,000,000	-13241
▁143,182,111	-13242
▁200,000,000	-13243
▁350,000,000	-13244
▁ADAPTIMMUNE	-13245
▁APPROPRIATE	-13246
▁Accelerated	-13247
▁AmeriCredit	-13248
▁Application	-13249
▁AstraZeneca	-13250
▁BENEFICIARY	-13251
▁Bookrunners	-13252
▁COMPLICATED	-13253
▁COUNTERPART	-13254
▁Collections	-13255
▁Competition	-13256
▁Disposition	-13257
▁Documentary	-13258
▁Enforcement	-13259
▁Engineering	-13260
▁FUNDAMENTAL	-13261
▁INDEPENDENT	-13262
▁INJUNCTIONS	-13263
▁Indemnitors	-13264
▁Individuals	-13265
▁Instruction	-13266
▁Intervening	-13267
▁Liquidation	-13268
▁Manufacture	-13269
▁Measurement	-13270
▁Opportunity	-13271
▁Origination	-13272
▁Prohibitive	-13273
▁Resignation	-13274
▁Responsible	-13275
▁Significant	-13276
▁Streamlined	-13277
▁TERMINATION	-13278
▁Transferees	-13279
▁Transporter	-13280
▁UNDERSTANDS	-13281
▁alterations	-13282
▁approximate	-13283
▁coinsurance	-13284
▁compromised	-13285
▁conflicting	-13286
▁contravenes	-13287
▁contributed	-13288
▁contributes	-13289
▁correlative	-13290
▁criticizing	-13291
▁discharging	-13292
▁disseminate	-13293
▁engineering	-13294
▁environment	-13295
▁evidentiary	-13296
▁exculpation	-13297
▁exoneration	-13298
▁exploration	-13299
▁foreseeably	-13300
▁forfeitures	-13301
▁formulating	-13302
▁genuineness	-13303
▁innovations	-13304
▁instituting	-13305
▁instruction	-13306
▁intangibles	-13307
▁interfering	-13308
▁investigate	-13309
▁malfeasance	-13310
▁malpractice	-13311
▁marshalling	-13312
▁negotiating	-13313
▁occurrences	-13314
▁prejudgment	-13315
▁promotional	-13316
▁prosecuting	-13317
▁provisional	-13318
▁realization	-13319
▁reallocated	-13320
▁registering	-13321
▁remediation	-13322
▁resolutions	-13323
▁secondarily	-13324
▁specialties	-13325
▁structuring	-13326
▁subordinate	-13327
▁threatening	-13328
▁transacting	-13329
▁underwriter	-13330
▁willingness	-13331
Disparagement	-13332
Environmental	-13333
Miscellaneous	-13334
_____________	-13335
▁$500,000,000	-13336
▁($1,000,000)	-13337
▁($50,000,000	-13338
▁ADJUDICATION	-13339
▁Accumulation	-13340
▁Benefitfocus	-13341
▁COLLECTIVELY	-13342
▁Commissioner	-13343
▁Concurrently	-13344
▁Constitution	-13345
▁Consultation	-13346
▁Deliverables	-13347
▁Dispositions	-13348
▁Expenditures	-13349
▁HealthFusion	-13350
▁INDEBTEDNESS	-13351
▁Indianapolis	-13352
▁Jacksonville	-13353
▁MODIFICATION	-13354
▁Metropolitan	-13355
▁Photographic	-13356
▁RECONVEYANCE	-13357
▁RealNetworks	-13358
▁SATISFACTION	-13359
▁SPECIFICALLY	-13360
▁Subparagraph	-13361
▁Subservicing	-13362
▁Substitution	-13363
▁Underwritten	-13364
▁UnitedHealth	-13365
▁accelerating	-13366
▁accompanying	-13367
▁characterize	-13368
▁conclusively	-13369
▁contributing	-13370
▁coordination	-13371
▁cumulatively	-13372
▁distributees	-13373
▁draftsperson	-13374
▁embezzlement	-13375
▁functionally	-13376
▁guaranteeing	-13377
▁hypothecated	-13378
▁incidentally	-13379
▁interception	-13380
▁intervention	-13381
▁invalidation	-13382
▁occupational	-13383
▁participates	-13384
▁preparations	-13385
▁prerequisite	-13386
▁prospectuses	-13387
▁publications	-13388
▁reimbursable	-13389
▁relinquishes	-13390
▁servicemarks	-13391
▁spreadsheets	-13392
▁sublicensees	-13393
▁successively	-13394
▁underwritten	-13395
▁unreformable	-13396
▁$100,000,000,	-13397
▁212-658-9867,	-13398
▁CIRCUMSTANCES	-13399
▁Commissioners	-13400
▁RAMIFICATIONS	-13401
▁Reimbursement	-13402
▁accelerations	-13403
▁administrator	-13404
▁arbitrability	-13405
▁cancellations	-13406
▁deterioration	-13407
▁disparagement	-13408
▁impermissible	-13409
▁inappropriate	-13410
▁notifications	-13411
▁pronouncement	-13412
▁reallocations	-13413
▁unambiguously	-13414
▁whistleblower	-13415
▁$1,000,000,000	-13416
▁ADMINISTRATION	-13417
▁Specifications	-13418
▁certifications	-13419
▁collectability	-13420
▁counterfeiting	-13421
▁exercisability	-13422
▁noncompetition	-13423
▁nonfulfillment	-13424
▁pharmaceutical	-13425
▁questionnaires	-13426
▁reasonableness	-13427
▁securityholder	-13428
▁specifications	-13429
▁subcontractors	-13430
▁Acknowledgments	-13431
▁Instrumentality	-13432
▁REPRESENTATIVES	-13433
▁interchangeably	-13434
▁nonsolicitation	-13435
▁recommendations	-13436
▁reconsideration	-13437
-98	-13438
066	-13439
124	-13440
135	-13441
148	-13442
167	-13443
17)	-13444
298	-13445
356	-13446
46/	-13447
51.	-13448
514	-13449
596	-13450
676	-13451
704	-13452
794	-13453
891	-13454
Buy	-13455
GAs	-13456
GBP	-13457
LTA	-13458
MBS	-13459
ODY	-13460
OIC	-13461
OOD	-13462
PUB	-13463
XIM	-13464
eSc	-13465
eij	-13466
hua	-13467
mov	-13468
oga	-13469
‐79	-13470
▁#1	-13471
▁*.	-13472
)(13	-13473
-357	-13474
-402	-13475
-411	-13476
-642	-13477
-841	-13478
-873	-13479
...]	-13480
.18.	-13481
.50%	-13482
/356	-13483
020.	-13484
03-2	-13485
066]	-13486
1,94	-13487
163,	-13488
2-21	-13489
231(	-13490
267,	-13491
28-2	-13492
288,	-13493
298‐	-13494
363,	-13495
4.13	-13496
414(	-13497
46/2	-13498
5,94	-13499
***	-13500
156	-13501
7-9	-13502
IZE	-13503
ttp	-13504
530,	-13505
581,	-13506
6,19	-13507
670,	-13508
6765	-13509
677,	-13510
6‐79	-13511
7,58	-13512
7-92	-13513
7921	-13514
798,	-13515
830,	-13516
841,	-13517
9-74	-13518
90-1	-13519
915,	-13520
943,	-13521
965,	-13522
988,	-13523
COMP	-13524
COPE	-13525
FYxx	-13526
Flex	-13527
IZED	-13528
LEAD	-13529
NCES	-13530
NCND	-13531
RECM	-13532
RMBS	-13533
SAID	-13534
SHIP	-13535
Star	-13536
TIME	-13537
This	-13538
UNDS	-13539
acov	-13540
anza	-13541
away	-13542
blec	-13543
carb	-13544
delp	-13545
egar	-13546
enog	-13547
mcna	-13548
mstr	-13549
ooga	-13550
ooks	-13551
otia	-13552
rics	-13553
tewa	-13554
type	-13555
waii	-13556
yyyy	-13557
▁#11	-13558
▁076	-13559
▁1/8	-13560
▁2-4	-13561
▁237	-13562
▁238	-13563
▁279	-13564
▁31;	-13565
▁395	-13566
▁452	-13567
▁5%.	-13568
▁55%	-13569
▁713	-13570
▁735	-13571
▁757	-13572
▁770	-13573
▁85%	-13574
▁855	-13575
▁AAV	-13576
▁BBB	-13577
▁CBA	-13578
▁DOU	-13579
▁EMB	-13580
▁FIX	-13581
▁GBP	-13582
▁JPE	-13583
▁JVA	-13584
▁MLP	-13585
▁Mij	-13586
▁MyD	-13587
▁Nav	-13588
▁OSH	-13589
▁SHA	-13590
▁SIM	-13591
▁Sky	-13592
▁TIC	-13593
▁WOD	-13594
▁Zhu	-13595
▁jmc	-13596
▁§15	-13597
▁“$”	-13598
)(1)(	-13599
$18	-13600
189	-13601
34-	-13602
747	-13603
SPP	-13604
.07.	-13605
201,	-13606
346,	-13607
4.8,	-13608
62-8	-13609
ippi	-13610
zzzz	-13611
▁$75	-13612
▁233	-13613
▁334	-13614
)(10)	-13615
)(2)(	-13616
)(3)(	-13617
-3051	-13618
-8100	-13619
-9879	-13620
.12),	-13621
.3.3.	-13622
0,794	-13623
0013,	-13624
03-26	-13625
1,111	-13626
1,944	-13627
16‐79	-13628
2-219	-13629
2-514	-13630
3,148	-13631
30,30	-13632
34-41	-13633
4,596	-13634
48.08	-13635
5,100	-13636
6,167	-13637
6,191	-13638
7478,	-13639
8-411	-13640
8830,	-13641
ALIZE	-13642
ARGES	-13643
AlVES	-13644
Buyer	-13645
ERENT	-13646
Grant	-13647
MISES	-13648
OLUTE	-13649
OURSE	-13650
SCROW	-13651
Thail	-13652
XIMUM	-13653
abria	-13654
anama	-13655
baker	-13656
brevi	-13657
eScap	-13658
fitch	-13659
hestn	-13660
incol	-13661
iolog	-13662
issue	-13663
liffs	-13664
livan	-13665
ocera	-13666
ocols	-13667
oftop	-13668
oison	-13669
oppel	-13670
oshua	-13671
ostaj	-13672
phers	-13673
plead	-13674
rushk	-13675
sburg	-13676
wkins	-13677
words	-13678
yenne	-13679
▁($41	-13680
▁($62	-13681
▁(55)	-13682
▁(609	-13683
▁0211	-13684
▁0763	-13685
▁1,66	-13686
▁1.6(	-13687
▁1012	-13688
▁1290	-13689
▁1967	-13690
▁1979	-13691
▁1989	-13692
▁2,35	-13693
▁2.9,	-13694
▁23.1	-13695
▁24,3	-13696
▁28.1	-13697
▁2828	-13698
▁29,9	-13699
134	-13700
234	-13701
aha	-13702
-110	-13703
.43(	-13704
110(	-13705
503(	-13706
disp	-13707
maha	-13708
1,234	-13709
Reaff	-13710
WHERE	-13711
▁1992	-13712
▁2.4.	-13713
▁22.2	-13714
▁24).	-13715
▁3.07	-13716
▁3.5(	-13717
▁3.9(	-13718
▁3.9,	-13719
▁3727	-13720
▁38.5	-13721
▁4,74	-13722
▁4.5;	-13723
▁4007	-13724
▁4204	-13725
▁424(	-13726
▁4245	-13727
▁4651	-13728
▁5.21	-13729
▁5.3;	-13730
▁5.4(	-13731
▁5.4.	-13732
▁5.6,	-13733
▁5.6;	-13734
▁590)	-13735
▁6,91	-13736
▁6.3.	-13737
▁6.5(	-13738
▁6.5,	-13739
▁6225	-13740
▁7,12	-13741
▁7.2,	-13742
▁7.2.	-13743
▁7.22	-13744
▁7.33	-13745
▁7.3;	-13746
▁7.5)	-13747
▁7.5,	-13748
▁700,	-13749
▁718,	-13750
▁8.6(	-13751
▁8.6.	-13752
▁8.8.	-13753
▁AGCO	-13754
▁ALTA	-13755
▁BEMA	-13756
▁Berg	-13757
▁Blue	-13758
▁CALC	-13759
▁CALI	-13760
▁Camb	-13761
▁Ciud	-13762
▁Cush	-13763
▁FUTA	-13764
▁GOOD	-13765
▁INTE	-13766
▁Kirk	-13767
▁Maza	-13768
▁Mont	-13769
▁MyDx	-13770
▁NALL	-13771
▁NBTB	-13772
▁Nova	-13773
▁OSHA	-13774
▁OTCB	-13775
▁PAYE	-13776
▁PICP	-13777
▁PSPI	-13778
▁Phil	-13779
▁Phys	-13780
▁READ	-13781
▁ROIC	-13782
▁Risk	-13783
▁SIDE	-13784
▁SPEs	-13785
▁SRFF	-13786
▁Selh	-13787
▁TECH	-13788
▁TERM	-13789
▁TOGE	-13790
▁Taub	-13791
▁Viac	-13792
▁Viol	-13793
▁Wayn	-13794
▁alia	-13795
▁ausp	-13796
▁bene	-13797
▁bids	-13798
▁easy	-13799
025	-13800
499	-13801
866	-13802
ILW	-13803
4995	-13804
ILWA	-13805
exeo	-13806
keda	-13807
▁$40	-13808
▁723	-13809
▁98%	-13810
▁CIF	-13811
▁FDA	-13812
▁GIF	-13813
▁XXX	-13814
8666,	-13815
IFEST	-13816
ILWAU	-13817
MPTLY	-13818
recru	-13819
riteo	-13820
▁1.9(	-13821
▁101(	-13822
▁4062	-13823
▁5.09	-13824
▁5.3.	-13825
▁5.5.	-13826
▁6.2)	-13827
▁6.2.	-13828
▁CIFC	-13829
▁Hamb	-13830
▁OPIN	-13831
▁PRES	-13832
▁educ	-13833
▁knew	-13834
▁ncur	-13835
▁prud	-13836
▁rich	-13837
▁tins	-13838
▁took	-13839
▁unwa	-13840
▁warn	-13841
)(13)(	-13842
-3575.	-13843
-4401,	-13844
-6424.	-13845
-8417,	-13846
...***	-13847
15,891	-13848
187,58	-13849
2,267,	-13850
2-4995	-13851
24,500	-13852
28,500	-13853
30,306	-13854
30-873	-13855
56,167	-13856
6-8100	-13857
7,500,	-13858
7-9286	-13859
798,34	-13860
841,23	-13861
9-6765	-13862
ASTERN	-13863
Assets	-13864
BITION	-13865
BUTION	-13866
COMPAS	-13867
Clause	-13868
Commit	-13869
GAINED	-13870
ILWAUK	-13871
ITNESS	-13872
Issued	-13873
Issuer	-13874
Kenyon	-13875
PUBLIC	-13876
RENCES	-13877
Served	-13878
TAINED	-13879
Tenant	-13880
acovig	-13881
acquar	-13882
before	-13883
calcul	-13884
cellum	-13885
dersli	-13886
duplic	-13887
enogra	-13888
errace	-13889
eville	-13890
ffreyn	-13891
fields	-13892
fulfil	-13893
hicago	-13894
iceroy	-13895
icians	-13896
idavit	-13897
ilders	-13898
ittman	-13899
08)	-13900
eva	-13901
**],	-13902
80%)	-13903
Kick	-13904
aumb	-13905
▁322	-13906
▁422	-13907
▁926	-13908
▁Bea	-13909
▁KPM	-13910
0608)	-13911
UABLE	-13912
laudi	-13913
urers	-13914
▁(14)	-13915
▁(90-	-13916
▁1280	-13917
▁1980	-13918
▁2,22	-13919
▁EXPL	-13920
▁Frid	-13921
▁HMRI	-13922
▁KPMG	-13923
▁RGAs	-13924
▁Shel	-13925
▁Susp	-13926
▁TAKE	-13927
▁Teva	-13928
▁john	-13929
▁ryan	-13930
-4028,	-13931
denied	-13932
idders	-13933
laudia	-13934
lexand	-13935
mechan	-13936
notice	-13937
odians	-13938
olized	-13939
oltewa	-13940
onanza	-13941
poison	-13942
ricult	-13943
rinted	-13944
rocarb	-13945
rushko	-13946
shares	-13947
single	-13948
terisk	-13949
totype	-13950
traded	-13951
tyship	-13952
umbent	-13953
umbing	-13954
urface	-13955
usseau	-13956
voices	-13957
worker	-13958
▁#118,	-13959
▁$0.63	-13960
▁$1,06	-13961
▁$1,79	-13962
▁$315,	-13963
▁(10%)	-13964
▁(12).	-13965
▁(214)	-13966
▁(22%)	-13967
▁(312)	-13968
▁(75%)	-13969
▁(80%)	-13970
▁(90-)	-13971
▁02111	-13972
▁1.04(	-13973
▁1.409	-13974
▁1.65,	-13975
▁10.5,	-13976
▁10.8,	-13977
▁10177	-13978
▁10178	-13979
▁10260	-13980
▁11.11	-13981
▁11.6(	-13982
▁12.4(	-13983
▁12.5,	-13984
▁12.6,	-13985
▁12.7,	-13986
▁12.8.	-13987
▁13.11	-13988
▁13.17	-13989
▁13.2,	-13990
▁1300,	-13991
▁13135	-13992
▁1441,	-13993
▁1442,	-13994
▁15.14	-13995
▁15.15	-13996
▁15.8,	-13997
▁16.15	-13998
▁16.3.	-13999
3-3	-14000
Job	-14001
obs	-14002
.15%	-14003
IENS	-14004
VANT	-14005
ampa	-14006
hart	-14007
sche	-14008
▁608	-14009
▁Wob	-14010
ATORY	-14011
CHANT	-14012
Repor	-14013
acobs	-14014
field	-14015
khart	-14016
local	-14017
mouth	-14018
▁$5.0	-14019
▁13-2	-14020
▁8.6,	-14021
▁Cohn	-14022
▁HCMJ	-14023
▁radi	-14024
▁rail	-14025
ACTURE	-14026
ategic	-14027
efield	-14028
paying	-14029
quiror	-14030
utsche	-14031
▁0.15%	-14032
▁13-23	-14033
▁1800,	-14034
▁1979.	-14035
▁1986,	-14036
▁1990,	-14037
▁1992,	-14038
▁1995,	-14039
▁1998,	-14040
▁2.05(	-14041
▁2.09(	-14042
▁2.20(	-14043
▁2.5),	-14044
▁2000.	-14045
▁2018.	-14046
▁2020”	-14047
▁2026,	-14048
▁2030,	-14049
▁24,37	-14050
▁25.0%	-14051
▁3.04(	-14052
▁3.08(	-14053
▁3.19.	-14054
▁3.3.3	-14055
▁31,48	-14056
▁328-2	-14057
▁33.3%	-14058
▁3700,	-14059
▁4.03(	-14060
▁4.04(	-14061
▁4.11(	-14062
▁4.4),	-14063
▁4001(	-14064
▁4043(	-14065
▁4062,	-14066
▁5.03(	-14067
▁5.05(	-14068
▁5.20(	-14069
▁5110(	-14070
▁6.01.	-14071
▁6.02.	-14072
▁6.03,	-14073
▁6.04;	-14074
▁6.05,	-14075
▁6.06.	-14076
▁6.08,	-14077
▁608-5	-14078
▁6231(	-14079
▁7.01.	-14080
▁7.03.	-14081
▁7.1.(	-14082
▁713.1	-14083
▁718).	-14084
▁7501,	-14085
▁7503(	-14086
▁77042	-14087
▁8.03(	-14088
▁8.2.2	-14089
▁9-305	-14090
▁9.02)	-14091
▁9.04(	-14092
▁9.07.	-14093
▁AFORE	-14094
▁Affin	-14095
▁Agree	-14096
▁Baker	-14097
▁Bango	-14098
▁Brand	-14099
217	-14100
972	-14101
BPA	-14102
IEE	-14103
TEE	-14104
-972	-14105
211,	-14106
212(	-14107
219,	-14108
edEx	-14109
otel	-14110
prof	-14111
zero	-14112
▁2,8	-14113
▁621	-14114
▁910	-14115
211,3	-14116
OWBPA	-14117
USTEE	-14118
orado	-14119
▁(13)	-14120
▁1.08	-14121
▁1.5%	-14122
▁17.1	-14123
▁17.2	-14124
▁3.2.	-14125
▁3.20	-14126
▁3003	-14127
▁5.08	-14128
▁8.1;	-14129
▁Elli	-14130
▁Glov	-14131
▁Juli	-14132
▁TRUE	-14133
-9725,	-14134
466,66	-14135
matter	-14136
prises	-14137
profit	-14138
tivity	-14139
yoming	-14140
▁10.2.	-14141
▁10.25	-14142
▁10.28	-14143
▁17.19	-14144
▁2014)	-14145
▁4212(	-14146
▁Bravo	-14147
▁CLOSE	-14148
▁CROSS	-14149
▁CUSTO	-14150
▁Corro	-14151
▁DEFEN	-14152
▁DEFIN	-14153
▁DISPO	-14154
▁DOUBT	-14155
▁DataS	-14156
▁Drone	-14157
▁EQUAL	-14158
▁EXIST	-14159
▁Faith	-14160
▁FedEx	-14161
▁Field	-14162
▁Files	-14163
▁Foods	-14164
▁GROSS	-14165
▁Glovs	-14166
▁HOLDS	-14167
▁Hotel	-14168
▁Impor	-14169
▁Intre	-14170
▁JOINT	-14171
▁Jemil	-14172
▁Kosta	-14173
▁LATER	-14174
▁LIENS	-14175
▁Logit	-14176
▁MAILS	-14177
▁MEANS	-14178
▁Madon	-14179
▁Malta	-14180
▁Micro	-14181
▁Navig	-14182
▁OTCBB	-14183
▁OWING	-14184
▁POSSI	-14185
▁Peter	-14186
▁SCOPE	-14187
▁SIMIL	-14188
▁SRech	-14189
▁Staff	-14190
▁TAKES	-14191
▁Tampa	-14192
▁Tanks	-14193
▁Tenth	-14194
▁UNLAW	-14195
▁VALLE	-14196
▁WHERE	-14197
▁WHOSE	-14198
▁Wacho	-14199
02(	-14200
334	-14201
81)	-14202
9,6	-14203
39,6	-14204
▁$25	-14205
▁21(	-14206
▁213	-14207
-102(	-14208
3,334	-14209
539,6	-14210
Infin	-14211
Neill	-14212
alton	-14213
ariff	-14214
arlin	-14215
ilton	-14216
quari	-14217
▁$36,	-14218
▁($42	-14219
▁(110	-14220
▁1/10	-14221
▁3.2,	-14222
▁3.4;	-14223
▁881)	-14224
▁9.4,	-14225
▁9:30	-14226
▁MANU	-14227
▁VARI	-14228
▁arms	-14229
90,000	-14230
Biolog	-14231
ECTUAL	-14232
Exempt	-14233
ariffs	-14234
ciplin	-14235
▁$36,3	-14236
▁3.4.5	-14237
▁6.19,	-14238
▁MANUF	-14239
▁Media	-14240
▁Milit	-14241
▁Robin	-14242
▁Weigh	-14243
▁WestR	-14244
▁Works	-14245
▁Worth	-14246
▁XVIII	-14247
▁_____	-14248
▁anony	-14249
▁badge	-14250
▁basic	-14251
▁bench	-14252
▁brand	-14253
▁brief	-14254
▁cGMPs	-14255
▁guide	-14256
▁influ	-14257
▁jemil	-14258
▁lized	-14259
▁memor	-14260
▁model	-14261
▁nonwa	-14262
▁piggy	-14263
▁pleas	-14264
▁print	-14265
▁privy	-14266
▁radio	-14267
▁ratio	-14268
▁renov	-14269
▁rerec	-14270
▁rolls	-14271
▁speed	-14272
▁spons	-14273
▁stead	-14274
▁tmcna	-14275
▁track	-14276
▁unimp	-14277
▁yield	-14278
▁§401(	-14279
▁“1933	-14280
▁“1934	-14281
0,000),	-14282
0,794.4	-14283
03-262-	-14284
2,211,3	-14285
288,134	-14286
3,500);	-14287
30,000.	-14288
35,000;	-14289
40,000)	-14290
40,000.	-14291
406,191	-14292
450,000	-14293
46/2000	-14294
5,000”.	-14295
5,539,6	-14296
530,124	-14297
670,217	-14298
74,000,	-14299
.8;	-14300
1.8	-14301
OTC	-14302
416,	-14303
81.8	-14304
IVED	-14305
anga	-14306
▁9.8	-14307
▁SPA	-14308
416,0	-14309
OTCQB	-14310
THING	-14311
angae	-14312
▁1.3.	-14313
▁10,8	-14314
▁18.3	-14315
▁250,	-14316
▁4.2(	-14317
▁4.20	-14318
▁4.2;	-14319
▁8.4,	-14320
▁DIFF	-14321
▁maps	-14322
5,000)	-14323
angaea	-14324
ebooks	-14325
▁10.8;	-14326
▁11.4,	-14327
▁12.4,	-14328
▁14.4,	-14329
▁18.01	-14330
▁2.10,	-14331
▁7.10,	-14332
▁users	-14333
00,000”	-14334
300,000	-14335
416,034	-14336
5,000),	-14337
505,000	-14338
798,345	-14339
89-6765	-14340
ARITIME	-14341
Account	-14342
Advance	-14343
Assumed	-14344
ENTENCE	-14345
Further	-14346
Pacific	-14347
REDITOR	-14348
Records	-14349
Settled	-14350
Special	-14351
TENSION	-14352
TIPLIED	-14353
VENIENS	-14354
ancings	-14355
arfield	-14356
arsdale	-14357
ateness	-14358
because	-14359
ciences	-14360
courier	-14361
dorsers	-14362
houseCo	-14363
housing	-14364
idnight	-14365
inetics	-14366
issibly	-14367
issippi	-14368
itively	-14369
kefield	-14370
lymouth	-14371
merging	-14372
mstrong	-14373
ologies	-14374
ostajul	-14375
qualify	-14376
ratings	-14377
referen	-14378
rilling	-14379
rington	-14380
roneous	-14381
rounded	-14382
simpson	-14383
stracts	-14384
teering	-14385
telecop	-14386
ubeScap	-14387
uctible	-14388
uilding	-14389
usehold	-14390
utcliff	-14391
willing	-14392
▁$.0000	-14393
▁$1,798	-14394
▁$5,000	-14395
▁$75.00	-14396
▁(110%)	-14397
▁01965,	-14398
▁02111.	-14399
.7%	-14400
5)-3	-14401
6.7%	-14402
940,	-14403
ANDS	-14404
▁***	-14405
▁2%)	-14406
▁ECM	-14407
▁Kno	-14408
▁LAB	-14409
▁TPH	-14410
▁syn	-14411
-1401	-14412
05)-3	-14413
940,5	-14414
LANDS	-14415
alyst	-14416
cepts	-14417
integ	-14418
laced	-14419
tinue	-14420
▁4.4(	-14421
▁6.1.	-14422
▁6.18	-14423
▁8.3,	-14424
▁Inno	-14425
▁Knox	-14426
▁LABS	-14427
▁TPHX	-14428
▁USED	-14429
▁USUR	-14430
▁Voce	-14431
▁Wang	-14432
▁paul	-14433
05)-32	-14434
argett	-14435
gevity	-14436
placed	-14437
ricity	-14438
signer	-14439
▁10.13	-14440
▁13.3,	-14441
▁6.02(	-14442
▁66.7%	-14443
▁Nexeo	-14444
▁Shell	-14445
▁USURY	-14446
▁merch	-14447
▁merit	-14448
▁prima	-14449
-1401).	-14450
05)-324	-14451
940,527	-14452
hetical	-14453
▁07632,	-14454
▁07677,	-14455
▁08830,	-14456
▁10.02,	-14457
▁10.05(	-14458
▁10.12;	-14459
▁10.13,	-14460
▁10.14(	-14461
▁10.15;	-14462
▁10.16;	-14463
▁10.22;	-14464
▁10.23;	-14465
▁10.24;	-14466
▁10.28.	-14467
▁11581,	-14468
▁12.3.1	-14469
▁13,189	-14470
▁14.6.6	-14471
▁15.13,	-14472
▁15.14,	-14473
▁15.16.	-14474
▁15.4.5	-14475
[...]
